#include "magic_wand_model_data.h"

// We need to keep the data array aligned on some architectures.
#ifdef __has_attribute
#define HAVE_ATTRIBUTE(x) __has_attribute(x)
#else
#define HAVE_ATTRIBUTE(x) 0
#endif
#if HAVE_ATTRIBUTE(aligned) || (defined(__GNUC__) && !defined(__clang__))
#define DATA_ALIGN_ATTRIBUTE __attribute__((aligned(4)))
#else
#define DATA_ALIGN_ATTRIBUTE
#endif

const unsigned char g_magic_wand_model_data[] DATA_ALIGN_ATTRIBUTE = {
  0x08, 0x00, 0x00, 0x00, 0x54, 0x46, 0x4c, 0x33, 0x62, 0xff, 0xff, 0xff,
  0x03, 0x00, 0x00, 0x00, 0x10, 0x00, 0x00, 0x00, 0x24, 0x00, 0x00, 0x00,
  0x78, 0x00, 0x00, 0x00, 0x24, 0x00, 0x00, 0x00, 0x05, 0x00, 0x00, 0x00,
  0x78, 0x05, 0x00, 0x00, 0xb0, 0x04, 0x00, 0x00, 0xe0, 0x02, 0x00, 0x00,
  0x60, 0x02, 0x00, 0x00, 0x54, 0x01, 0x00, 0x00, 0x01, 0x00, 0x00, 0x00,
  0x78, 0x00, 0x00, 0x00, 0x13, 0x00, 0x00, 0x00, 0x18, 0x30, 0x00, 0x00,
  0x14, 0x30, 0x00, 0x00, 0x20, 0x2f, 0x00, 0x00, 0xa8, 0x2e, 0x00, 0x00,
  0x3c, 0x2e, 0x00, 0x00, 0xec, 0x11, 0x00, 0x00, 0x98, 0x10, 0x00, 0x00,
  0xbc, 0x0e, 0x00, 0x00, 0x60, 0x06, 0x00, 0x00, 0xfc, 0x05, 0x00, 0x00,
  0x78, 0x05, 0x00, 0x00, 0xec, 0x2f, 0x00, 0x00, 0xe8, 0x2f, 0x00, 0x00,
  0xe4, 0x2f, 0x00, 0x00, 0xe0, 0x2f, 0x00, 0x00, 0xdc, 0x2f, 0x00, 0x00,
  0xd8, 0x2f, 0x00, 0x00, 0xd4, 0x2f, 0x00, 0x00, 0xd0, 0x2f, 0x00, 0x00,
  0x0f, 0x00, 0x00, 0x00, 0x4d, 0x4c, 0x49, 0x52, 0x20, 0x43, 0x6f, 0x6e,
  0x76, 0x65, 0x72, 0x74, 0x65, 0x64, 0x2e, 0x00, 0x00, 0x00, 0x0e, 0x00,
  0x18, 0x00, 0x04, 0x00, 0x08, 0x00, 0x0c, 0x00, 0x10, 0x00, 0x14, 0x00,
  0x0e, 0x00, 0x00, 0x00, 0x14, 0x00, 0x00, 0x00, 0x5c, 0x00, 0x00, 0x00,
  0x60, 0x00, 0x00, 0x00, 0x64, 0x00, 0x00, 0x00, 0x84, 0x00, 0x00, 0x00,
  0x12, 0x00, 0x00, 0x00, 0x48, 0x2f, 0x00, 0x00, 0xe4, 0x2e, 0x00, 0x00,
  0x3c, 0x2e, 0x00, 0x00, 0xd8, 0x2d, 0x00, 0x00, 0x70, 0x2d, 0x00, 0x00,
  0x1c, 0x11, 0x00, 0x00, 0xc0, 0x0f, 0x00, 0x00, 0xe4, 0x0d, 0x00, 0x00,
  0xa0, 0x05, 0x00, 0x00, 0x3c, 0x05, 0x00, 0x00, 0xb0, 0x04, 0x00, 0x00,
  0xe8, 0x03, 0x00, 0x00, 0x38, 0x03, 0x00, 0x00, 0xa4, 0x02, 0x00, 0x00,
  0x10, 0x02, 0x00, 0x00, 0x90, 0x01, 0x00, 0x00, 0xfc, 0x00, 0x00, 0x00,
  0x80, 0x00, 0x00, 0x00, 0x01, 0x00, 0x00, 0x00, 0x00, 0x00, 0x00, 0x00,
  0x01, 0x00, 0x00, 0x00, 0x11, 0x00, 0x00, 0x00, 0x08, 0x00, 0x00, 0x00,
  0x1c, 0x04, 0x00, 0x00, 0x58, 0x03, 0x00, 0x00, 0xc8, 0x02, 0x00, 0x00,
  0x24, 0x02, 0x00, 0x00, 0xac, 0x01, 0x00, 0x00, 0x10, 0x01, 0x00, 0x00,
  0x94, 0x00, 0x00, 0x00, 0x10, 0x00, 0x00, 0x00, 0x04, 0x00, 0x00, 0x00,
  0x6d, 0x61, 0x69, 0x6e, 0x00, 0x00, 0x00, 0x00, 0x8e, 0xff, 0xff, 0xff,
  0x00, 0x00, 0x00, 0x09, 0x04, 0x00, 0x00, 0x00, 0x1c, 0x00, 0x00, 0x00,
  0x10, 0x00, 0x00, 0x00, 0x04, 0x00, 0x00, 0x00, 0x0a, 0xd2, 0xff, 0xff,
  0x00, 0x00, 0x80, 0x3f, 0x01, 0x00, 0x00, 0x00, 0x11, 0x00, 0x00, 0x00,
  0x01, 0x00, 0x00, 0x00, 0x10, 0x00, 0x00, 0x00, 0xf6, 0xfb, 0xff, 0xff,
  0x00, 0x00, 0x00, 0x19, 0x01, 0x00, 0x00, 0x00, 0x8a, 0xd1, 0xff, 0xff,
  0x10, 0x00, 0x00, 0x00, 0x12, 0x00, 0x00, 0x00, 0x14, 0x00, 0x00, 0x00,
  0x20, 0x00, 0x00, 0x00, 0x02, 0x00, 0x00, 0x00, 0x01, 0x00, 0x00, 0x00,
  0x04, 0x00, 0x00, 0x00, 0x08, 0x00, 0x00, 0x00, 0x49, 0x64, 0x65, 0x6e,
  0x74, 0x69, 0x74, 0x79, 0x00, 0x00, 0x00, 0x00, 0xc4, 0xd1, 0xff, 0xff,
  0x00, 0x00, 0x0e, 0x00, 0x18, 0x00, 0x08, 0x00, 0x0c, 0x00, 0x10, 0x00,
  0x07, 0x00, 0x14, 0x00, 0x0e, 0x00, 0x00, 0x00, 0x00, 0x00, 0x00, 0x08,
  0x03, 0x00, 0x00, 0x00, 0x18, 0x00, 0x00, 0x00, 0x0c, 0x00, 0x00, 0x00,
  0x04, 0x00, 0x00, 0x00, 0x98, 0xd1, 0xff, 0xff, 0x01, 0x00, 0x00, 0x00,
  0x10, 0x00, 0x00, 0x00, 0x03, 0x00, 0x00, 0x00, 0x0f, 0x00, 0x00, 0x00,
  0x05, 0x00, 0x00, 0x00, 0x02, 0x00, 0x00, 0x00, 0x02, 0xd2, 0xff, 0xff,
  0x10, 0x00, 0x00, 0x00, 0x11, 0x00, 0x00, 0x00, 0x14, 0x00, 0x00, 0x00,
  0x30, 0x00, 0x00, 0x00, 0x02, 0x00, 0x00, 0x00, 0x01, 0x00, 0x00, 0x00,
  0x04, 0x00, 0x00, 0x00, 0x1a, 0x00, 0x00, 0x00, 0x73, 0x65, 0x71, 0x75,
  0x65, 0x6e, 0x74, 0x69, 0x61, 0x6c, 0x2f, 0x64, 0x65, 0x6e, 0x73, 0x65,
  0x5f, 0x31, 0x2f, 0x42, 0x69, 0x61, 0x73, 0x41, 0x64, 0x64, 0x00, 0x00,
  0xf4, 0xd1, 0xff, 0xff, 0xd6, 0xfd, 0xff, 0xff, 0x00, 0x00, 0x00, 0x08,
  0x03, 0x00, 0x00, 0x00, 0x24, 0x00, 0x00, 0x00, 0x18, 0x00, 0x00, 0x00,
  0x0c, 0x00, 0x00, 0x00, 0x00, 0x00, 0x06, 0x00, 0x08, 0x00, 0x07, 0x00,
  0x06, 0x00, 0x00, 0x00, 0x00, 0x00, 0x00, 0x01, 0x01, 0x00, 0x00, 0x00,
  0x0f, 0x00, 0x00, 0x00, 0x03, 0x00, 0x00, 0x00, 0x0e, 0x00, 0x00, 0x00,
  0x04, 0x00, 0x00, 0x00, 0x01, 0x00, 0x00, 0x00, 0xfe, 0xfc, 0xff, 0xff,
  0x00, 0x00, 0x00, 0x09, 0x01, 0x00, 0x00, 0x00, 0x92, 0xd2, 0xff, 0xff,
  0x10, 0x00, 0x00, 0x00, 0x10, 0x00, 0x00, 0x00, 0x14, 0x00, 0x00, 0x00,
  0x2c, 0x00, 0x00, 0x00, 0x02, 0x00, 0x00, 0x00, 0x01, 0x00, 0x00, 0x00,
  0x10, 0x00, 0x00, 0x00, 0x15, 0x00, 0x00, 0x00, 0x73, 0x65, 0x71, 0x75,
  0x65, 0x6e, 0x74, 0x69, 0x61, 0x6c, 0x2f, 0x64, 0x65, 0x6e, 0x73, 0x65,
  0x2f, 0x52, 0x65, 0x6c, 0x75, 0x00, 0x00, 0x00, 0xd8, 0xd2, 0xff, 0xff,
  0x00, 0x00, 0x0a, 0x00, 0x10, 0x00, 0x04, 0x00, 0x08, 0x00, 0x0c, 0x00,
  0x0a, 0x00, 0x00, 0x00, 0x02, 0x00, 0x00, 0x00, 0x10, 0x00, 0x00, 0x00,
  0x04, 0x00, 0x00, 0x00, 0x01, 0x00, 0x00, 0x00, 0x0e, 0x00, 0x00, 0x00,
  0x02, 0x00, 0x00, 0x00, 0x0d, 0x00, 0x00, 0x00, 0x03, 0x00, 0x00, 0x00,
  0x7a, 0xfd, 0xff, 0xff, 0x00, 0x00, 0x00, 0x16, 0x01, 0x00, 0x00, 0x00,
  0x0e, 0xd3, 0xff, 0xff, 0x10, 0x00, 0x00, 0x00, 0x0f, 0x00, 0x00, 0x00,
  0x14, 0x00, 0x00, 0x00, 0x30, 0x00, 0x00, 0x00, 0x02, 0x00, 0x00, 0x00,
  0x01, 0x00, 0x00, 0x00, 0x70, 0x00, 0x00, 0x00, 0x1a, 0x00, 0x00, 0x00,
  0x73, 0x65, 0x71, 0x75, 0x65, 0x6e, 0x74, 0x69, 0x61, 0x6c, 0x2f, 0x66,
  0x6c, 0x61, 0x74, 0x74, 0x65, 0x6e, 0x2f, 0x52, 0x65, 0x73, 0x68, 0x61,
  0x70, 0x65, 0x00, 0x00, 0x00, 0xd3, 0xff, 0xff, 0xe2, 0xfe, 0xff, 0xff,
  0x00, 0x00, 0x00, 0x05, 0x01, 0x00, 0x00, 0x00, 0x38, 0x00, 0x00, 0x00,
  0x2c, 0x00, 0x00, 0x00, 0x14, 0x00, 0x00, 0x00, 0x00, 0x00, 0x0e, 0x00,
  0x14, 0x00, 0x00, 0x00, 0x10, 0x00, 0x0c, 0x00, 0x08, 0x00, 0x04, 0x00,
  0x0e, 0x00, 0x00, 0x00, 0x03, 0x00, 0x00, 0x00, 0x01, 0x00, 0x00, 0x00,
  0x03, 0x00, 0x00, 0x00, 0x01, 0x00, 0x00, 0x00, 0x01, 0x00, 0x00, 0x00,
  0x0d, 0x00, 0x00, 0x00, 0x01, 0x00, 0x00, 0x00, 0x0c, 0x00, 0x00, 0x00,
  0x9e, 0xd3, 0xff, 0xff, 0x10, 0x00, 0x00, 0x00, 0x0e, 0x00, 0x00, 0x00,
  0x1c, 0x00, 0x00, 0x00, 0x40, 0x00, 0x00, 0x00, 0x04, 0x00, 0x00, 0x00,
  0x01, 0x00, 0x00, 0x00, 0x07, 0x00, 0x00, 0x00, 0x01, 0x00, 0x00, 0x00,
  0x10, 0x00, 0x00, 0x00, 0x22, 0x00, 0x00, 0x00, 0x73, 0x65, 0x71, 0x75,
  0x65, 0x6e, 0x74, 0x69, 0x61, 0x6c, 0x2f, 0x6d, 0x61, 0x78, 0x5f, 0x70,
  0x6f, 0x6f, 0x6c, 0x69, 0x6e, 0x67, 0x32, 0x64, 0x5f, 0x31, 0x2f, 0x4d,
  0x61, 0x78, 0x50, 0x6f, 0x6f, 0x6c, 0x00, 0x00, 0xa0, 0xd3, 0xff, 0xff,
  0xc2, 0xfe, 0xff, 0xff, 0x00, 0x00, 0x00, 0x01, 0x24, 0x00, 0x00, 0x00,
  0x18, 0x00, 0x00, 0x00, 0x04, 0x00, 0x00, 0x00, 0xb4, 0xfe, 0xff, 0xff,
  0x01, 0x00, 0x00, 0x00, 0x01, 0x00, 0x00, 0x00, 0x00, 0x00, 0x00, 0x01,
  0x01, 0x00, 0x00, 0x00, 0x0c, 0x00, 0x00, 0x00, 0x03, 0x00, 0x00, 0x00,
  0x0b, 0x00, 0x00, 0x00, 0x07, 0x00, 0x00, 0x00, 0x09, 0x00, 0x00, 0x00,
  0x2e, 0xd4, 0xff, 0xff, 0x10, 0x00, 0x00, 0x00, 0x0d, 0x00, 0x00, 0x00,
  0x1c, 0x00, 0x00, 0x00, 0x2c, 0x00, 0x00, 0x00, 0x04, 0x00, 0x00, 0x00,
  0x01, 0x00, 0x00, 0x00, 0x15, 0x00, 0x00, 0x00, 0x01, 0x00, 0x00, 0x00,
  0x10, 0x00, 0x00, 0x00, 0x0c, 0x00, 0x00, 0x00, 0x74, 0x66, 0x6c, 0x2e,
  0x63, 0x6f, 0x6e, 0x76, 0x5f, 0x32, 0x64, 0x31, 0x00, 0x00, 0x00, 0x00,
  0x74, 0xd4, 0xff, 0xff, 0x00, 0x00, 0x0e, 0x00, 0x1a, 0x00, 0x08, 0x00,
  0x0c, 0x00, 0x10, 0x00, 0x07, 0x00, 0x14, 0x00, 0x0e, 0x00, 0x00, 0x00,
  0x00, 0x00, 0x00, 0x05, 0x01, 0x00, 0x00, 0x00, 0x3c, 0x00, 0x00, 0x00,
  0x30, 0x00, 0x00, 0x00, 0x14, 0x00, 0x00, 0x00, 0x00, 0x00, 0x0e, 0x00,
  0x18, 0x00, 0x17, 0x00, 0x10, 0x00, 0x0c, 0x00, 0x08, 0x00, 0x04, 0x00,
  0x0e, 0x00, 0x00, 0x00, 0x03, 0x00, 0x00, 0x00, 0x03, 0x00, 0x00, 0x00,
  0x03, 0x00, 0x00, 0x00, 0x03, 0x00, 0x00, 0x00, 0x00, 0x00, 0x00, 0x01,
  0x01, 0x00, 0x00, 0x00, 0x0b, 0x00, 0x00, 0x00, 0x01, 0x00, 0x00, 0x00,
  0x0a, 0x00, 0x00, 0x00, 0x46, 0xff, 0xff, 0xff, 0x00, 0x00, 0x00, 0x11,
  0x01, 0x00, 0x00, 0x00, 0xda, 0xd4, 0xff, 0xff, 0x10, 0x00, 0x00, 0x00,
  0x0c, 0x00, 0x00, 0x00, 0x1c, 0x00, 0x00, 0x00, 0x40, 0x00, 0x00, 0x00,
  0x04, 0x00, 0x00, 0x00, 0x01, 0x00, 0x00, 0x00, 0x15, 0x00, 0x00, 0x00,
  0x01, 0x00, 0x00, 0x00, 0x08, 0x00, 0x00, 0x00, 0x20, 0x00, 0x00, 0x00,
  0x73, 0x65, 0x71, 0x75, 0x65, 0x6e, 0x74, 0x69, 0x61, 0x6c, 0x2f, 0x6d,
  0x61, 0x78, 0x5f, 0x70, 0x6f, 0x6f, 0x6c, 0x69, 0x6e, 0x67, 0x32, 0x64,
  0x2f, 0x4d, 0x61, 0x78, 0x50, 0x6f, 0x6f, 0x6c, 0x00, 0x00, 0x00, 0x00,
  0x34, 0xd5, 0xff, 0xff, 0x00, 0x00, 0x0e, 0x00, 0x14, 0x00, 0x00, 0x00,
  0x08, 0x00, 0x0c, 0x00, 0x07, 0x00, 0x10, 0x00, 0x0e, 0x00, 0x00, 0x00,
  0x00, 0x00, 0x00, 0x01, 0x30, 0x00, 0x00, 0x00, 0x24, 0x00, 0x00, 0x00,
  0x10, 0x00, 0x00, 0x00, 0x0c, 0x00, 0x10, 0x00, 0x00, 0x00, 0x04, 0x00,
  0x08, 0x00, 0x0f, 0x00, 0x0c, 0x00, 0x00, 0x00, 0x01, 0x00, 0x00, 0x00,
  0x01, 0x00, 0x00, 0x00, 0x00, 0x00, 0x00, 0x01, 0x01, 0x00, 0x00, 0x00,
  0x0a, 0x00, 0x00, 0x00, 0x03, 0x00, 0x00, 0x00, 0x00, 0x00, 0x00, 0x00,
  0x06, 0x00, 0x00, 0x00, 0x08, 0x00, 0x00, 0x00, 0x00, 0x00, 0x0a, 0x00,
  0x0c, 0x00, 0x07, 0x00, 0x00, 0x00, 0x08, 0x00, 0x0a, 0x00, 0x00, 0x00,
  0x00, 0x00, 0x00, 0x03, 0x01, 0x00, 0x00, 0x00, 0x9e, 0xd5, 0xff, 0xff,
  0x10, 0x00, 0x00, 0x00, 0x0b, 0x00, 0x00, 0x00, 0x1c, 0x00, 0x00, 0x00,
  0x28, 0x00, 0x00, 0x00, 0x04, 0x00, 0x00, 0x00, 0x01, 0x00, 0x00, 0x00,
  0x40, 0x00, 0x00, 0x00, 0x03, 0x00, 0x00, 0x00, 0x08, 0x00, 0x00, 0x00,
  0x0b, 0x00, 0x00, 0x00, 0x74, 0x66, 0x6c, 0x2e, 0x63, 0x6f, 0x6e, 0x76,
  0x5f, 0x32, 0x64, 0x00, 0x88, 0xd5, 0xff, 0xff, 0x7e, 0xd6, 0xff, 0xff,
  0x04, 0x00, 0x00, 0x00, 0x40, 0x00, 0x00, 0x00, 0x05, 0x4c, 0x7b, 0xbe,
  0x98, 0x54, 0x45, 0x40, 0xf8, 0x5a, 0x46, 0x3e, 0x5d, 0x3b, 0x1e, 0xbf,
  0x41, 0x44, 0x82, 0xbe, 0x26, 0xf8, 0x23, 0x3d, 0xbf, 0x04, 0x85, 0xbe,
  0xbd, 0x9b, 0x82, 0xbe, 0x9c, 0x26, 0x78, 0xbf, 0x13, 0xe0, 0x1f, 0x40,
  0x45, 0x78, 0x14, 0xbe, 0xb8, 0xba, 0x9d, 0x3e, 0xf5, 0x9f, 0xf7, 0xbe,
  0x2f, 0xd3, 0x3e, 0xbe, 0x8c, 0xcd, 0x23, 0xbf, 0x67, 0x8a, 0x5d, 0x3f,
  0x26, 0xd6, 0xff, 0xff, 0x10, 0x00, 0x00, 0x00, 0x0a, 0x00, 0x00, 0x00,
  0x10, 0x00, 0x00, 0x00, 0x20, 0x00, 0x00, 0x00, 0x01, 0x00, 0x00, 0x00,
  0x10, 0x00, 0x00, 0x00, 0x0d, 0x00, 0x00, 0x00, 0x73, 0x74, 0x64, 0x2e,
  0x63, 0x6f, 0x6e, 0x73, 0x74, 0x61, 0x6e, 0x74, 0x31, 0x00, 0x00, 0x00,
  0x08, 0xd6, 0xff, 0xff, 0xfe, 0xd6, 0xff, 0xff, 0x04, 0x00, 0x00, 0x00,
  0x20, 0x00, 0x00, 0x00, 0xe0, 0xe9, 0xa5, 0xbf, 0xd3, 0xdc, 0x5b, 0x3f,
  0xbd, 0x73, 0x6c, 0xbf, 0x3f, 0x19, 0x8e, 0xbf, 0x18, 0x86, 0xc1, 0x3f,
  0xfa, 0x90, 0xb4, 0xbf, 0x2d, 0x80, 0x7d, 0xbe, 0xd1, 0x7a, 0xe4, 0xbf,
  0x86, 0xd6, 0xff, 0xff, 0x10, 0x00, 0x00, 0x00, 0x09, 0x00, 0x00, 0x00,
  0x10, 0x00, 0x00, 0x00, 0x20, 0x00, 0x00, 0x00, 0x01, 0x00, 0x00, 0x00,
  0x08, 0x00, 0x00, 0x00, 0x0c, 0x00, 0x00, 0x00, 0x73, 0x74, 0x64, 0x2e,
  0x63, 0x6f, 0x6e, 0x73, 0x74, 0x61, 0x6e, 0x74, 0x00, 0x00, 0x00, 0x00,
  0x68, 0xd6, 0xff, 0xff, 0x5e, 0xd7, 0xff, 0xff, 0x04, 0x00, 0x00, 0x00,
  0x00, 0x08, 0x00, 0x00, 0x49, 0xcb, 0xac, 0xbd, 0xaf, 0x59, 0xe6, 0x3d,
  0x51, 0xea, 0xc8, 0x3c, 0xd4, 0x76, 0x2a, 0x3e, 0x69, 0xe4, 0xf2, 0xbd,
  0x51, 0xab, 0x92, 0xbd, 0x73, 0xf7, 0xc6, 0x3e, 0xa5, 0x18, 0xaf, 0xbe,
  0x13, 0x73, 0x8c, 0xbe, 0x6b, 0x96, 0x69, 0xbe, 0xe4, 0xe9, 0x98, 0x3c,
  0x72, 0xd2, 0xc8, 0xbd, 0xc5, 0x3d, 0x9c, 0xbe, 0xa2, 0xf4, 0xb8, 0x3e,
  0x4e, 0x1a, 0x19, 0xbe, 0xe2, 0xe7, 0x7c, 0xbe, 0xda, 0x34, 0xf4, 0xbc,
  0x72, 0xa5, 0xed, 0xbe, 0x78, 0xdb, 0x56, 0x3e, 0x12, 0x1b, 0x80, 0xbd,
  0x2f, 0x54, 0x11, 0xbe, 0xc1, 0xbd, 0x96, 0xbe, 0x31, 0xad, 0x57, 0xbe,
  0xaf, 0x70, 0xed, 0xbd, 0x97, 0xee, 0xdf, 0x3e, 0xe5, 0x0c, 0x76, 0xbd,
  0xca, 0x47, 0x4d, 0xbc, 0x13, 0x4f, 0x2b, 0xbe, 0xee, 0x5c, 0x5d, 0xbd,
  0xb3, 0xda, 0x84, 0xbe, 0x89, 0x74, 0x76, 0xbe, 0x78, 0xfb, 0x93, 0x3c,
  0x5c, 0x6f, 0xb4, 0xbe, 0x04, 0x22, 0x87, 0xba, 0x04, 0x23, 0x96, 0xbe,
  0xad, 0x3e, 0x5a, 0xbd, 0x9c, 0xfc, 0x21, 0xbe, 0x05, 0x5a, 0xd0, 0x3d,
  0xfb, 0x3b, 0xe4, 0xbe, 0xd9, 0x68, 0xb0, 0xbd, 0x42, 0x45, 0x02, 0xbf,
  0x8f, 0x3a, 0xfc, 0xbd, 0x5c, 0xcf, 0x36, 0xbf, 0x5e, 0x85, 0x8c, 0xbe,
  0xf7, 0x7d, 0x0d, 0xbf, 0xd5, 0x61, 0x9e, 0xbe, 0xe3, 0x5f, 0xad, 0xbe,
  0x70, 0xae, 0xf9, 0xbe, 0xb0, 0x92, 0x55, 0xbe, 0x88, 0x6b, 0x55, 0x3e,
  0xfd, 0xef, 0xda, 0xbe, 0x13, 0xd4, 0x86, 0xbe, 0x6b, 0x63, 0xf8, 0xbd,
  0x64, 0xd2, 0xe9, 0xbd, 0xcb, 0x4c, 0x00, 0xbd, 0x0f, 0x8b, 0x15, 0xbe,
  0x22, 0x9b, 0xa0, 0x3d, 0x85, 0x1e, 0x01, 0x3e, 0x13, 0x15, 0x9f, 0x3d,
  0xbb, 0x17, 0xa9, 0xbd, 0x43, 0x5f, 0x21, 0x3e, 0xf2, 0x01, 0x55, 0x3d,
  0xba, 0xe1, 0x26, 0x3e, 0x42, 0x66, 0xc2, 0xbd, 0x8e, 0x55, 0xd8, 0xbd,
  0xdb, 0x8b, 0x54, 0xbe, 0x5e, 0x49, 0xd6, 0xbd, 0xf5, 0xdb, 0x88, 0x3d,
  0x37, 0xfb, 0xab, 0xbd, 0xb3, 0x2c, 0x3a, 0x3e, 0xda, 0x97, 0xb5, 0x3d,
  0x56, 0x88, 0x91, 0xbe, 0x66, 0x23, 0xd5, 0xbd, 0x31, 0xd4, 0xe9, 0xbe,
  0x2a, 0x83, 0x27, 0xbc, 0xa8, 0x48, 0xb2, 0xbc, 0x0f, 0x6b, 0xf5, 0xbe,
  0x69, 0xe5, 0xab, 0xbd, 0x55, 0x48, 0xb3, 0xbd, 0x26, 0xe7, 0x02, 0xbf,
  0x31, 0x32, 0x7e, 0x3e, 0xe9, 0x68, 0x6c, 0xbe, 0x60, 0x68, 0xa5, 0x3e,
  0x39, 0x32, 0x30, 0xbe, 0xd6, 0x8a, 0x2d, 0xbe, 0x9c, 0xd4, 0xdf, 0xbe,
  0xdb, 0xbe, 0x5e, 0xbe, 0xaa, 0xb7, 0x44, 0x3d, 0x9b, 0x83, 0xc4, 0xbd,
  0xbe, 0x7a, 0xb0, 0x3d, 0xa8, 0xdf, 0x86, 0x3e, 0xf6, 0x65, 0x5d, 0xbe,
  0xcd, 0x72, 0x12, 0xbb, 0xcd, 0x2c, 0x64, 0xbe, 0x6f, 0x38, 0x8f, 0xbd,
  0x06, 0x3a, 0xbf, 0x3d, 0x72, 0xb2, 0x97, 0x3c, 0x16, 0xe6, 0x04, 0xbf,
  0x55, 0x3d, 0x02, 0x3e, 0xb7, 0x88, 0x27, 0xbe, 0x32, 0x42, 0x4a, 0xbe,
  0x15, 0x40, 0xb3, 0xbe, 0x1e, 0x99, 0x83, 0xbe, 0x2a, 0x42, 0xce, 0xbd,
  0x74, 0x66, 0xdd, 0x3c, 0x15, 0x9c, 0x14, 0xbe, 0xa9, 0x82, 0x9d, 0x3e,
  0x9a, 0xf1, 0x99, 0xbd, 0xfd, 0x4a, 0x87, 0xbe, 0x55, 0x45, 0x24, 0xbe,
  0xb9, 0x46, 0xa3, 0xbe, 0xd4, 0xe4, 0x95, 0x3e, 0xc0, 0xa2, 0x57, 0x3d,
  0x78, 0xb5, 0xba, 0x3d, 0xc0, 0x36, 0xf4, 0x3c, 0xcb, 0xc3, 0xee, 0xbd,
  0x55, 0x22, 0x90, 0xbe, 0x69, 0x89, 0x8e, 0xbe, 0x01, 0xd7, 0x1a, 0x3e,
  0x57, 0x24, 0x07, 0x3d, 0xed, 0x4b, 0xb0, 0x3d, 0x7a, 0x5d, 0x07, 0x3e,
  0xde, 0x32, 0xcc, 0xbd, 0xd6, 0x65, 0xb5, 0xbc, 0xd6, 0xae, 0x63, 0xbe,
  0xd8, 0x92, 0x5f, 0xbe, 0x43, 0xbc, 0x89, 0x3d, 0x60, 0xae, 0xd6, 0xbe,
  0xa0, 0x50, 0x9f, 0xbe, 0xfb, 0x1a, 0x60, 0xbe, 0x2a, 0xa1, 0x0b, 0xbf,
  0x7c, 0x93, 0xf0, 0x3d, 0x20, 0x6d, 0xd0, 0xbe, 0xd2, 0x2d, 0x5a, 0x3e,
  0x14, 0x36, 0x92, 0xbe, 0x19, 0x33, 0x38, 0x3e, 0x61, 0xfb, 0x6b, 0xbe,
  0x22, 0xa7, 0xce, 0xbd, 0x81, 0x49, 0x61, 0xbf, 0x1b, 0xdd, 0x3e, 0xbe,
  0xa4, 0xc0, 0xe2, 0xbe, 0x30, 0x8f, 0xb1, 0xbe, 0x25, 0xa6, 0x38, 0xbe,
  0x3f, 0xf6, 0xb0, 0xbe, 0xa7, 0xb9, 0x1d, 0x3c, 0x0f, 0x5a, 0x7b, 0x3e,
  0x53, 0x04, 0x61, 0xbe, 0x90, 0x48, 0x23, 0xbc, 0xae, 0xf2, 0xc0, 0x3e,
  0xd9, 0x91, 0x53, 0xbc, 0x19, 0xc3, 0x32, 0x3e, 0x7d, 0x47, 0xc6, 0xbd,
  0x8e, 0xe3, 0xc8, 0x3d, 0x7a, 0x16, 0x6c, 0xbd, 0xcb, 0x2f, 0xd4, 0x3d,
  0xb4, 0x33, 0xae, 0x3c, 0x97, 0x88, 0x75, 0x3b, 0x92, 0xae, 0xa9, 0x3d,
  0xf0, 0x14, 0x99, 0x3d, 0x24, 0xa3, 0x0e, 0xbe, 0xc5, 0xab, 0x63, 0xbe,
  0x8a, 0x88, 0x78, 0xbe, 0x7f, 0x01, 0xd8, 0xbe, 0x4b, 0xe2, 0xd0, 0xbc,
  0x96, 0xce, 0x76, 0xbd, 0xcb, 0x22, 0x86, 0x3e, 0x8b, 0x79, 0xa3, 0x3d,
  0xa4, 0x66, 0xfd, 0xbd, 0x88, 0x47, 0x88, 0xbe, 0x5a, 0x4f, 0xfd, 0xbd,
  0x7a, 0xef, 0x3d, 0xbf, 0xfb, 0xda, 0x76, 0xbd, 0x22, 0xff, 0xd3, 0x3c,
  0xf5, 0xe1, 0xa8, 0x3e, 0x23, 0x59, 0xa9, 0xbd, 0x0d, 0x16, 0xb3, 0xbd,
  0x37, 0xa0, 0xcd, 0xbe, 0xd4, 0xf7, 0x1a, 0xbe, 0x4f, 0xde, 0x59, 0xbf,
  0x76, 0xfa, 0x65, 0x3e, 0x46, 0x52, 0x0e, 0xbe, 0x19, 0x3a, 0x52, 0x3e,
  0xb8, 0x8f, 0x55, 0xb9, 0x13, 0xfa, 0x90, 0xbe, 0x1a, 0xee, 0x01, 0xbf,
  0xcb, 0xfb, 0x0a, 0xbf, 0x40, 0xfd, 0xad, 0xbe, 0x5b, 0xa4, 0xbe, 0xbd,
  0xfc, 0xb2, 0x35, 0xbe, 0x04, 0x19, 0x36, 0x3e, 0xda, 0x18, 0xe6, 0xba,
  0xe6, 0xe2, 0x73, 0x3c, 0x25, 0x43, 0xa7, 0xbe, 0x19, 0x14, 0x07, 0xbe,
  0x7c, 0x3c, 0x76, 0xbf, 0x7a, 0x86, 0xc0, 0xbe, 0x88, 0x63, 0xea, 0xbe,
  0x43, 0xaa, 0xef, 0xbe, 0x4c, 0x8a, 0xab, 0xbe, 0x59, 0xe0, 0xca, 0xbe,
  0xeb, 0xd6, 0x07, 0x3e, 0x18, 0xe9, 0x30, 0x3e, 0x25, 0x66, 0x7f, 0xbd,
  0x44, 0xbc, 0xb0, 0xbd, 0x84, 0x97, 0x8f, 0x3e, 0x6a, 0x61, 0x22, 0x3e,
  0x5f, 0xc8, 0xd8, 0x3d, 0x94, 0x9d, 0x64, 0x3d, 0x5e, 0xa5, 0x86, 0x3d,
  0xc2, 0x55, 0xcd, 0xbb, 0x50, 0xef, 0x96, 0x3d, 0xc5, 0x82, 0x82, 0xbc,
  0x9c, 0x09, 0x8a, 0xbc, 0x73, 0x84, 0x85, 0x3c, 0xa1, 0x94, 0x9e, 0x3c,
  0x7e, 0xf1, 0xa3, 0xbc, 0x5e, 0xe8, 0x53, 0x3c, 0x5c, 0x1f, 0x99, 0xbd,
  0xd2, 0xb1, 0xb3, 0x3d, 0xe7, 0xb4, 0xec, 0xbc, 0x77, 0xd5, 0x8f, 0x3d,
  0x5d, 0x01, 0xa7, 0xbd, 0xd1, 0xf6, 0x4b, 0xbd, 0x3c, 0xc6, 0x0d, 0xbd,
  0xdd, 0xa9, 0x04, 0xbf, 0x34, 0x11, 0x65, 0x3d, 0x9d, 0x95, 0x06, 0x3e,
  0x76, 0x40, 0x03, 0x3e, 0x1e, 0xc0, 0x46, 0x3e, 0x28, 0xf2, 0xe3, 0xbe,
  0xd4, 0xd7, 0x60, 0x3b, 0x8d, 0x3b, 0x99, 0xbe, 0x69, 0x01, 0xee, 0xbe,
  0x63, 0xdc, 0xc5, 0x3c, 0x0d, 0x9e, 0x86, 0xbd, 0x5a, 0x56, 0x72, 0x3c,
  0x67, 0x0f, 0xcd, 0xbd, 0x54, 0x2f, 0xb6, 0xbe, 0x65, 0x01, 0x9e, 0x3e,
  0x85, 0x9e, 0xab, 0xbe, 0xdc, 0x2b, 0x30, 0xbf, 0x39, 0x38, 0xf2, 0xbd,
  0x84, 0x0e, 0x76, 0xbe, 0xe7, 0x5a, 0xc2, 0xbd, 0x3b, 0x70, 0x2e, 0x3e,
  0x62, 0x7a, 0xb5, 0xbe, 0x65, 0xb2, 0x01, 0x3e, 0xd6, 0xb1, 0xd6, 0xbe,
  0x41, 0xda, 0x39, 0xbf, 0xe6, 0x5e, 0x4f, 0xbe, 0x49, 0xdd, 0xc5, 0xbe,
  0xea, 0xcb, 0xc6, 0x3d, 0x49, 0x94, 0xb5, 0x3e, 0xd3, 0x9f, 0xec, 0xbe,
  0x7a, 0xd9, 0xfb, 0xbd, 0x5e, 0x3c, 0x5d, 0xbe, 0xef, 0x32, 0xbd, 0x3c,
  0x85, 0x05, 0x08, 0x3e, 0xdd, 0x33, 0x6a, 0xbc, 0x0e, 0x15, 0x12, 0xbe,
  0x33, 0xac, 0x9c, 0xbd, 0xb4, 0xd6, 0x16, 0xbd, 0x32, 0x4d, 0x16, 0x3e,
  0x29, 0x57, 0x90, 0xbe, 0x44, 0x21, 0x1b, 0xbe, 0xd6, 0x9c, 0x64, 0xbe,
  0x84, 0x19, 0xd8, 0x3d, 0x50, 0x10, 0xfa, 0xbd, 0x09, 0xc5, 0xe9, 0xbe,
  0xd9, 0xeb, 0xae, 0xbe, 0x8e, 0x5a, 0xac, 0x3d, 0x87, 0x3d, 0xdc, 0xbe,
  0xdf, 0xcf, 0x7e, 0xbe, 0x5a, 0xa3, 0x47, 0xbe, 0x3b, 0x12, 0x47, 0x3e,
  0x7c, 0xe1, 0x7e, 0x3e, 0x3d, 0x6f, 0xcd, 0xbd, 0xc7, 0x24, 0xac, 0x3e,
  0xc8, 0x43, 0xc2, 0xbd, 0xcc, 0xc8, 0x9b, 0x3d, 0x15, 0x4c, 0x46, 0xbe,
  0x50, 0xbd, 0x4c, 0xbe, 0xc3, 0x5c, 0xd2, 0x3d, 0x15, 0x90, 0x49, 0xbe,
  0x05, 0xdb, 0xa9, 0x3d, 0xc7, 0x1e, 0xf8, 0x3e, 0xd9, 0x41, 0x01, 0xbe,
  0x38, 0x67, 0x10, 0x3d, 0x09, 0x8e, 0x45, 0x3e, 0xf7, 0x84, 0x9c, 0x3c,
  0x36, 0xa4, 0x96, 0x3e, 0x15, 0x7e, 0x9a, 0xbd, 0xfc, 0x2b, 0x28, 0xbe,
  0x3a, 0x21, 0x1c, 0x3e, 0x52, 0x48, 0x11, 0x3e, 0x1f, 0x69, 0xfb, 0xbd,
  0x3f, 0xd0, 0x5a, 0x3d, 0x9b, 0x37, 0xf5, 0xbe, 0x31, 0x9b, 0x8d, 0x3e,
  0x38, 0xdf, 0x51, 0xbe, 0xd7, 0xe9, 0x27, 0xbc, 0x32, 0xa6, 0xe2, 0xbe,
  0xb9, 0x90, 0x6c, 0xbe, 0xba, 0xaf, 0x1f, 0x3e, 0xe5, 0x6d, 0x9c, 0xbe,
  0xd2, 0xe8, 0xfc, 0xbd, 0x1d, 0xf7, 0x3e, 0xbe, 0xb1, 0x15, 0xb9, 0xbd,
  0x0d, 0x76, 0x61, 0x3e, 0x1c, 0x41, 0x20, 0xbf, 0x41, 0xb0, 0x04, 0xbf,
  0x21, 0xcc, 0x30, 0x3d, 0x67, 0xe2, 0x95, 0xbe, 0x1c, 0x11, 0x33, 0xbe,
  0x39, 0x0a, 0x98, 0xbe, 0xce, 0x36, 0x23, 0xbe, 0x51, 0x78, 0x05, 0xbe,
  0x67, 0xa9, 0x1d, 0xbf, 0xd7, 0x92, 0x5e, 0xbe, 0x22, 0xb7, 0xfa, 0xbc,
  0x51, 0x75, 0x82, 0xbc, 0x05, 0xad, 0x1f, 0xbf, 0xcb, 0xcd, 0x39, 0x3e,
  0x62, 0xb5, 0x43, 0xbe, 0xad, 0xd3, 0x81, 0xbf, 0xd8, 0x53, 0x3c, 0xbe,
  0x08, 0x0c, 0xf9, 0xbc, 0xfd, 0x3c, 0x4e, 0xbe, 0xf3, 0x3d, 0xb8, 0xbe,
  0x51, 0xd4, 0xd7, 0xbe, 0x66, 0x48, 0x6c, 0x3d, 0x08, 0x41, 0x62, 0x3d,
  0x01, 0x88, 0x42, 0xbf, 0x6b, 0xbf, 0x6c, 0xbc, 0x01, 0x57, 0xdf, 0xbd,
  0xdb, 0x15, 0x9b, 0xbe, 0x5e, 0xdf, 0x9a, 0xbd, 0xba, 0x03, 0xbc, 0xbe,
  0xd7, 0x7a, 0xeb, 0xbc, 0xb9, 0x5e, 0x81, 0xbb, 0x0d, 0xdb, 0x8b, 0xbe,
  0x59, 0x6b, 0x48, 0x3e, 0xd4, 0x80, 0x82, 0xbc, 0xee, 0xba, 0xb0, 0xbd,
  0x8d, 0xfd, 0xe7, 0xbb, 0x1d, 0xa5, 0x27, 0x3e, 0xb3, 0xd4, 0x33, 0xbe,
  0xed, 0x73, 0x03, 0x3d, 0xf6, 0x3b, 0x4b, 0x3e, 0xa9, 0x83, 0x91, 0x3d,
  0x7b, 0x4d, 0x07, 0xbd, 0x07, 0xdf, 0x8b, 0x3e, 0x5b, 0x9c, 0x5d, 0xbe,
  0xa8, 0x3a, 0x26, 0xbd, 0xa0, 0x2e, 0x08, 0xbd, 0xb4, 0x16, 0xd2, 0x3d,
  0x3e, 0x4b, 0xa0, 0xbe, 0xa2, 0xd2, 0xae, 0xbc, 0x60, 0xf4, 0x2a, 0x3d,
  0xb6, 0x8f, 0x2a, 0xbe, 0x5c, 0x52, 0x81, 0xbe, 0xb2, 0xec, 0x02, 0xbf,
  0x2b, 0xfc, 0x9f, 0xbd, 0x1d, 0xa6, 0x9e, 0x3c, 0xfd, 0x60, 0x3d, 0xbf,
  0x95, 0x24, 0x91, 0xbe, 0xbc, 0x9f, 0x25, 0xbe, 0x9d, 0x6e, 0xbf, 0xbe,
  0x5c, 0xf8, 0xcf, 0x3e, 0x05, 0x32, 0x39, 0xbf, 0x3e, 0xec, 0x16, 0x3e,
  0xa0, 0xc0, 0xa1, 0x3d, 0x42, 0x05, 0x98, 0xbe, 0xb5, 0xcf, 0x0e, 0xbf,
  0xd7, 0xd2, 0x5b, 0xbe, 0x15, 0x4e, 0xac, 0xbe, 0xb4, 0xfc, 0x92, 0x3c,
  0x57, 0xb0, 0xba, 0xbc, 0xfc, 0x39, 0x11, 0x3e, 0x75, 0x92, 0x94, 0xbe,
  0xb9, 0xf2, 0x5f, 0x3e, 0x5f, 0x6e, 0xfd, 0xbe, 0xf8, 0xe9, 0x66, 0xbe,
  0xc8, 0x5e, 0x3d, 0x3d, 0x52, 0x10, 0x9a, 0xbd, 0x0c, 0xed, 0x51, 0x3c,
  0xb0, 0x9e, 0xe2, 0x3c, 0x61, 0x33, 0x30, 0x3c, 0xc5, 0xaf, 0x9f, 0xbb,
  0xdb, 0xae, 0xae, 0xbe, 0x1c, 0x68, 0x45, 0xbc, 0xd6, 0xa4, 0x59, 0x3e,
  0xc4, 0x02, 0xff, 0xbd, 0x4b, 0x33, 0x93, 0x3c, 0xbe, 0x3f, 0x9e, 0xbc,
  0x21, 0xa7, 0xc2, 0xbd, 0x2e, 0x69, 0x8b, 0xbc, 0x19, 0x62, 0xb7, 0x3e,
  0x62, 0xd7, 0xff, 0xbd, 0x30, 0x17, 0x19, 0x3e, 0x1d, 0x72, 0x4d, 0xbd,
  0x11, 0x5d, 0xa7, 0x3d, 0xc0, 0x69, 0xcc, 0xbd, 0x8b, 0xf6, 0x1c, 0xbe,
  0x3b, 0x1b, 0x90, 0x3d, 0x1f, 0x1e, 0x7c, 0x3e, 0x13, 0x1c, 0x05, 0xbe,
  0x45, 0x34, 0x8a, 0xbd, 0x7a, 0x87, 0xbe, 0xbd, 0xe2, 0x76, 0x69, 0x3d,
  0x88, 0xc3, 0xd5, 0x3b, 0x74, 0x05, 0x01, 0xbe, 0xd8, 0x2c, 0xc8, 0xbd,
  0x81, 0xb9, 0x1a, 0x3e, 0xb0, 0xd0, 0x12, 0xbe, 0x92, 0x84, 0x03, 0x3e,
  0xc7, 0x3c, 0x21, 0xbf, 0x11, 0xfa, 0x5d, 0xbf, 0xbe, 0xd3, 0x1d, 0x3e,
  0x4f, 0xc5, 0x2d, 0x3d, 0xe9, 0xfb, 0x00, 0xbf, 0xfe, 0xfc, 0xb8, 0xbd,
  0xa8, 0x29, 0x77, 0xbe, 0x1e, 0x29, 0xcb, 0x3e, 0x28, 0x90, 0xe5, 0xbd,
  0x43, 0x8a, 0xb4, 0xbd, 0xe7, 0x14, 0x15, 0xbe, 0xaa, 0x35, 0xd2, 0x3d,
  0xf7, 0x81, 0xaa, 0xbd, 0xce, 0x0b, 0xcb, 0xbc, 0xd9, 0x73, 0x86, 0xbd,
  0xa9, 0x0b, 0xea, 0xbd, 0x89, 0x3c, 0x0d, 0xbd, 0xe6, 0xe8, 0x11, 0x3d,
  0x0a, 0x5b, 0xb0, 0xbd, 0x49, 0x36, 0x74, 0x3d, 0x9d, 0xfa, 0x06, 0x3e,
  0xef, 0x5f, 0x82, 0x3e, 0x89, 0xba, 0xc2, 0xbc, 0x80, 0xcc, 0x13, 0x3b,
  0xd2, 0xeb, 0x9e, 0xbd, 0x83, 0x08, 0xc2, 0xbc, 0x69, 0x56, 0x09, 0xbe,
  0x9c, 0x63, 0x01, 0xbe, 0x18, 0x3a, 0xaf, 0xbc, 0x63, 0xde, 0xc8, 0x3d,
  0xdc, 0xde, 0xd7, 0xbc, 0x8b, 0x07, 0x31, 0xbe, 0x26, 0x91, 0xdb, 0x3e,
  0x98, 0xf8, 0x8e, 0x3e, 0x9d, 0x18, 0x23, 0xbe, 0x8e, 0xa5, 0x4f, 0xbe,
  0x1d, 0xf9, 0x73, 0x3d, 0xf4, 0x6e, 0x00, 0xbd, 0x46, 0xb1, 0xab, 0xbd,
  0x7b, 0xc8, 0xbd, 0xbc, 0x16, 0x47, 0x71, 0xbd, 0xc7, 0x16, 0x2e, 0x3e,
  0x64, 0x50, 0x7b, 0x3d, 0x29, 0x9a, 0xff, 0xbd, 0xed, 0xc5, 0xcc, 0x3d,
  0xc3, 0xf1, 0xb6, 0xbd, 0xae, 0xeb, 0x46, 0xbc, 0xb0, 0x32, 0x57, 0x3d,
  0xb3, 0x35, 0x79, 0xbd, 0xe7, 0x71, 0x29, 0x3d, 0x73, 0x50, 0xf5, 0x3d,
  0x1e, 0x2e, 0x47, 0xbe, 0xcd, 0xdc, 0xe8, 0x3d, 0x79, 0x29, 0xa7, 0xbd,
  0xfb, 0xbc, 0xd0, 0xbd, 0xfc, 0x3a, 0xfd, 0x3d, 0xf4, 0x59, 0x68, 0xbc,
  0x71, 0x71, 0xa5, 0x3d, 0x78, 0x78, 0xa5, 0x3d, 0x2f, 0xba, 0xfe, 0xbd,
  0x2a, 0xdd, 0xd0, 0xbd, 0xab, 0x38, 0xb3, 0xbc, 0xad, 0x1b, 0xcb, 0xbd,
  0xe7, 0x19, 0x91, 0x3d, 0x58, 0x35, 0x30, 0xbd, 0x1a, 0x98, 0xcc, 0xbd,
  0x9e, 0xec, 0xd4, 0x3d, 0x6f, 0x73, 0xbb, 0xbd, 0x45, 0x4c, 0xc5, 0xbe,
  0x63, 0x49, 0x8d, 0xbf, 0x24, 0x05, 0x0b, 0x3e, 0x12, 0xb8, 0xb0, 0xbe,
  0x6c, 0x68, 0xcf, 0x3d, 0x54, 0x66, 0x21, 0x3e, 0xfc, 0xd7, 0xa0, 0xbe,
  0xd9, 0x15, 0xf1, 0x3d, 0x4d, 0x1b, 0x08, 0xbf, 0x0c, 0xbb, 0x7a, 0xbf,
  0x0f, 0xdb, 0xcd, 0x3d, 0x7c, 0x9e, 0x2e, 0xbd, 0x4e, 0x5a, 0xe2, 0xbc,
  0x37, 0xae, 0x1c, 0xc0, 0xe2, 0x35, 0x8c, 0xbe, 0xf4, 0x9d, 0xf3, 0x3c,
  0xd5, 0x4b, 0x31, 0xc0, 0xeb, 0x32, 0xef, 0xbe, 0x8b, 0x99, 0x8d, 0xbc,
  0xc8, 0xb0, 0xf1, 0x3c, 0x7f, 0x96, 0x4a, 0xbe, 0xb9, 0xfa, 0x32, 0xc0,
  0xec, 0xf7, 0x9c, 0xbe, 0xe8, 0x17, 0x99, 0x3d, 0xd9, 0x92, 0x3c, 0xc0,
  0x6b, 0x06, 0x16, 0xbf, 0x4d, 0xfe, 0x9c, 0xbd, 0x1d, 0x8d, 0x28, 0x3e,
  0xc6, 0xde, 0xff, 0xff, 0x10, 0x00, 0x00, 0x00, 0x08, 0x00, 0x00, 0x00,
  0x1c, 0x00, 0x00, 0x00, 0x38, 0x00, 0x00, 0x00, 0x04, 0x00, 0x00, 0x00,
  0x10, 0x00, 0x00, 0x00, 0x04, 0x00, 0x00, 0x00, 0x01, 0x00, 0x00, 0x00,
  0x08, 0x00, 0x00, 0x00, 0x1a, 0x00, 0x00, 0x00, 0x73, 0x65, 0x71, 0x75,
  0x65, 0x6e, 0x74, 0x69, 0x61, 0x6c, 0x2f, 0x63, 0x6f, 0x6e, 0x76, 0x32,
  0x64, 0x5f, 0x31, 0x2f, 0x43, 0x6f, 0x6e, 0x76, 0x32, 0x44, 0x00, 0x00,
  0xc0, 0xde, 0xff, 0xff, 0xb6, 0xdf, 0xff, 0xff, 0x04, 0x00, 0x00, 0x00,
  0x80, 0x01, 0x00, 0x00, 0x4e, 0x33, 0xbb, 0xbe, 0x06, 0x17, 0x29, 0xbd,
  0xc9, 0x2e, 0xa0, 0x3c, 0xba, 0xdb, 0x8c, 0x3b, 0xb5, 0xc4, 0x6a, 0xbe,
  0x73, 0xea, 0x05, 0xbd, 0xa0, 0x2c, 0x07, 0x3e, 0xa4, 0x3e, 0x1d, 0xbe,
  0xbb, 0x4e, 0x99, 0xbc, 0xe3, 0x56, 0x27, 0x3f, 0x49, 0x5e, 0x5f, 0xbd,
  0x2f, 0xdb, 0x95, 0xbd, 0x7e, 0xa7, 0xb1, 0xbe, 0x0e, 0x6d, 0xaa, 0xbd,
  0x63, 0x42, 0x79, 0xbd, 0x31, 0x2b, 0xd9, 0xbd, 0x07, 0x43, 0x10, 0xbe,
  0xb8, 0xc2, 0xd6, 0xbd, 0x80, 0x2d, 0x55, 0x3c, 0x7b, 0x61, 0x80, 0x3d,
  0xac, 0x31, 0x26, 0x3d, 0x3c, 0x53, 0x26, 0xbf, 0x87, 0x7d, 0xea, 0xbc,
  0xfe, 0x30, 0x07, 0xbd, 0xee, 0x4a, 0xaa, 0xbd, 0x67, 0xbf, 0x25, 0xbe,
  0x84, 0x4c, 0x11, 0xbe, 0x95, 0xa9, 0xb6, 0x3e, 0xe1, 0xc4, 0xb7, 0xbe,
  0x06, 0xd3, 0x2e, 0x3b, 0x9b, 0x41, 0x8d, 0xbd, 0xc5, 0xe4, 0x4a, 0x3e,
  0xa2, 0x95, 0xab, 0x3d, 0x68, 0xee, 0xcb, 0xbd, 0xa3, 0x66, 0x8c, 0x3e,
  0x72, 0x20, 0xed, 0xbc, 0xd0, 0x26, 0x60, 0xbd, 0x9d, 0xc9, 0xdd, 0xbd,
  0xf7, 0xfb, 0x6e, 0x3e, 0x2c, 0xb5, 0x68, 0xbd, 0x65, 0x5b, 0x0a, 0x3c,
  0xfe, 0x10, 0x01, 0x3e, 0xe8, 0xd7, 0x33, 0x3c, 0x8d, 0x40, 0x2f, 0x3d,
  0x1b, 0x42, 0x74, 0xbd, 0x51, 0x76, 0x10, 0x3a, 0xce, 0xdd, 0xca, 0xbc,
  0xe3, 0x19, 0x71, 0xbe, 0xc2, 0x33, 0x00, 0x3f, 0x61, 0xd8, 0x07, 0xbe,
  0x4a, 0x09, 0x5b, 0xbe, 0x6a, 0x2a, 0x27, 0xbe, 0x27, 0x82, 0x9a, 0xbb,
  0x19, 0xeb, 0x3a, 0xbe, 0x0f, 0x8f, 0x1e, 0xbd, 0x6f, 0x8d, 0x8b, 0xbe,
  0x49, 0xef, 0x64, 0x3c, 0x82, 0x3e, 0x73, 0x3e, 0xcb, 0xf9, 0x13, 0x3d,
  0xdf, 0x73, 0x15, 0x3d, 0x43, 0x32, 0x62, 0x3d, 0x68, 0xe9, 0x3c, 0xbd,
  0x41, 0x58, 0x1f, 0xbf, 0x66, 0x2c, 0x02, 0xbe, 0x65, 0x67, 0xa3, 0xbd,
  0x8a, 0xd5, 0xb7, 0xbe, 0xf3, 0xa9, 0x18, 0xbe, 0x99, 0xd3, 0x1c, 0xbd,
  0xd6, 0x60, 0xb7, 0xbd, 0x9a, 0x5d, 0x2a, 0xbe, 0xee, 0xac, 0x37, 0x3c,
  0x64, 0x29, 0xc2, 0x3e, 0x0a, 0x85, 0xde, 0xbe, 0xae, 0x48, 0x8e, 0xbd,
  0x74, 0xcd, 0xd1, 0x3d, 0x6e, 0x05, 0xba, 0xbe, 0x0d, 0xb1, 0xc1, 0xbd,
  0x12, 0x0f, 0x98, 0x3c, 0x5b, 0x1f, 0x00, 0xbe, 0x6f, 0x79, 0xdf, 0xbc,
  0x37, 0x06, 0x92, 0xbc, 0xfc, 0x6c, 0x44, 0xbd, 0xc9, 0x3a, 0x73, 0xbd,
  0xa9, 0xe8, 0x02, 0xbd, 0x86, 0x62, 0x10, 0x3e, 0x3d, 0x13, 0x1e, 0x3c,
  0x2b, 0x1c, 0x05, 0xbf, 0x1c, 0xc6, 0xc1, 0x3e, 0x5d, 0xdf, 0x94, 0x3d,
  0xf6, 0xac, 0x9a, 0xbe, 0x9f, 0xae, 0xf5, 0x3e, 0x6c, 0x58, 0xb3, 0xbd,
  0x39, 0x8b, 0xf1, 0xbd, 0x46, 0xf4, 0x32, 0xbe, 0x2f, 0xcc, 0x42, 0xbe,
  0x60, 0x08, 0x8e, 0x3e, 0x9e, 0xe0, 0xff, 0xff, 0x10, 0x00, 0x00, 0x00,
  0x07, 0x00, 0x00, 0x00, 0x1c, 0x00, 0x00, 0x00, 0x38, 0x00, 0x00, 0x00,
  0x04, 0x00, 0x00, 0x00, 0x08, 0x00, 0x00, 0x00, 0x04, 0x00, 0x00, 0x00,
  0x03, 0x00, 0x00, 0x00, 0x01, 0x00, 0x00, 0x00, 0x18, 0x00, 0x00, 0x00,
  0x73, 0x65, 0x71, 0x75, 0x65, 0x6e, 0x74, 0x69, 0x61, 0x6c, 0x2f, 0x63,
  0x6f, 0x6e, 0x76, 0x32, 0x64, 0x2f, 0x43, 0x6f, 0x6e, 0x76, 0x32, 0x44,
  0x00, 0x00, 0x00, 0x00, 0x98, 0xe0, 0xff, 0xff, 0x8e, 0xe1, 0xff, 0xff,
  0x04, 0x00, 0x00, 0x00, 0x00, 0x01, 0x00, 0x00, 0x71, 0xb3, 0x17, 0x3c,
  0xec, 0xd5, 0x59, 0x3e, 0x8a, 0xd8, 0xb0, 0x3e, 0xfa, 0x53, 0x39, 0x3d,
  0x87, 0x14, 0x3e, 0xbe, 0xb3, 0x2c, 0xc7, 0xbd, 0x70, 0x30, 0xa1, 0xbd,
  0x10, 0x84, 0xec, 0x3c, 0x67, 0xec, 0x66, 0x3e, 0x1e, 0xb3, 0x3d, 0x3e,
  0xaa, 0x6c, 0x6b, 0x3e, 0x21, 0x2f, 0x8b, 0x3e, 0xa8, 0xdf, 0x85, 0x3e,
  0xa2, 0x9e, 0x68, 0x3e, 0x0e, 0x93, 0x08, 0x3e, 0xcf, 0x84, 0x7a, 0x3d,
  0x1c, 0x79, 0x3d, 0x3d, 0x73, 0xe8, 0x34, 0xbe, 0x72, 0x23, 0xab, 0x3e,
  0x2a, 0x7f, 0x60, 0x3c, 0x88, 0xff, 0x28, 0xbd, 0x59, 0x61, 0x27, 0xbe,
  0xa4, 0xb9, 0xed, 0x3c, 0xe2, 0xb8, 0x84, 0x3d, 0x24, 0x68, 0x79, 0x3e,
  0x3d, 0xeb, 0x3f, 0x3e, 0xb4, 0x9e, 0x32, 0x3e, 0x9a, 0x71, 0xa2, 0x3e,
  0x6a, 0xdc, 0x5b, 0x3e, 0x67, 0x1c, 0xbc, 0x3d, 0x18, 0x11, 0xbb, 0xbc,
  0x4a, 0xbd, 0x64, 0x3d, 0xc2, 0xed, 0xbe, 0x3d, 0xd0, 0x8c, 0x40, 0xbc,
  0xc9, 0xe3, 0xc8, 0x3e, 0x69, 0xbe, 0xa0, 0x3d, 0x5c, 0x49, 0x02, 0x3e,
  0x28, 0xab, 0x97, 0xbd, 0x1f, 0x93, 0xfa, 0x3d, 0xf1, 0xd2, 0xe2, 0xbc,
  0xa2, 0xe9, 0x32, 0x3e, 0xd3, 0x17, 0x22, 0x3e, 0xc8, 0x3f, 0xfc, 0x3d,
  0x6b, 0x0a, 0x7a, 0x3e, 0x82, 0x1a, 0xfe, 0x3d, 0xda, 0x9a, 0xba, 0x3e,
  0x97, 0x4e, 0xdb, 0x3c, 0x87, 0x74, 0x03, 0x3e, 0x2b, 0x42, 0x5d, 0x3c,
  0x15, 0x7e, 0x96, 0xbe, 0x19, 0xec, 0x9a, 0x3e, 0xc9, 0x12, 0x19, 0x3e,
  0x5b, 0xdf, 0x82, 0x3d, 0xac, 0x97, 0x45, 0xbe, 0x50, 0xab, 0x0e, 0xbe,
  0x97, 0xb3, 0xee, 0xbc, 0x36, 0x23, 0x43, 0x3e, 0x4b, 0xb0, 0x87, 0x3e,
  0xd1, 0x77, 0xfd, 0x3d, 0x6f, 0xf0, 0x56, 0x3e, 0x58, 0x5c, 0x37, 0x3e,
  0xaa, 0x19, 0x62, 0x3e, 0x60, 0x38, 0x57, 0xbd, 0xb5, 0x9a, 0xaf, 0xbc,
  0xf6, 0xe1, 0xff, 0xff, 0x10, 0x00, 0x00, 0x00, 0x06, 0x00, 0x00, 0x00,
  0x14, 0x00, 0x00, 0x00, 0x30, 0x00, 0x00, 0x00, 0x02, 0x00, 0x00, 0x00,
  0x04, 0x00, 0x00, 0x00, 0x10, 0x00, 0x00, 0x00, 0x19, 0x00, 0x00, 0x00,
  0x73, 0x65, 0x71, 0x75, 0x65, 0x6e, 0x74, 0x69, 0x61, 0x6c, 0x2f, 0x64,
  0x65, 0x6e, 0x73, 0x65, 0x5f, 0x31, 0x2f, 0x4d, 0x61, 0x74, 0x4d, 0x75,
  0x6c, 0x00, 0x00, 0x00, 0xe8, 0xe1, 0xff, 0xff, 0xde, 0xe2, 0xff, 0xff,
  0x04, 0x00, 0x00, 0x00, 0x00, 0x1c, 0x00, 0x00, 0xbb, 0x7b, 0x7e, 0xbd,
  0x3f, 0xf2, 0xca, 0xbe, 0x98, 0x28, 0xcc, 0x3d, 0xc6, 0xee, 0x61, 0xbe,
  0x81, 0x4f, 0x2a, 0xbe, 0x5b, 0xb4, 0x1c, 0xbf, 0x2b, 0x56, 0xb0, 0xbe,
  0x1c, 0x50, 0x98, 0x3e, 0x67, 0x2f, 0x7c, 0x3e, 0x23, 0x89, 0x5a, 0xbd,
  0x28, 0x47, 0xc3, 0x3e, 0x83, 0x87, 0x89, 0x3d, 0x0a, 0x30, 0x67, 0xbe,
  0x49, 0xa5, 0x01, 0x3e, 0x0b, 0x7b, 0xf6, 0xbe, 0xaa, 0xfb, 0xd2, 0xbb,
  0xeb, 0xc1, 0x62, 0xbe, 0xa6, 0xac, 0x65, 0xbe, 0x74, 0xeb, 0xc5, 0xbd,
  0xdf, 0xd7, 0x5f, 0xbe, 0x36, 0x9b, 0x8d, 0xbe, 0x48, 0xd2, 0xa5, 0xbe,
  0x4e, 0xa1, 0xaf, 0xbd, 0xd8, 0x6f, 0x0d, 0x3d, 0x62, 0x0d, 0xa7, 0x3e,
  0x3b, 0x28, 0x9f, 0xbd, 0xf8, 0x92, 0x7e, 0x3e, 0x43, 0x96, 0x53, 0x3b,
  0xda, 0x15, 0x64, 0x3e, 0xb2, 0x31, 0x3a, 0x3e, 0xc7, 0x28, 0x3c, 0xbd,
  0xba, 0xfc, 0x43, 0xbc, 0x65, 0x0f, 0x47, 0xbe, 0xfd, 0x1b, 0x83, 0xbd,
  0x91, 0x91, 0xdc, 0x3d, 0x83, 0xe3, 0x85, 0xbe, 0xe3, 0x5b, 0x02, 0x3d,
  0xa0, 0xc8, 0x92, 0xbe, 0x12, 0x14, 0x80, 0xbd, 0x2b, 0xe4, 0x67, 0xbd,
  0x51, 0xfa, 0x0d, 0x3e, 0x6f, 0xac, 0x15, 0x3d, 0xd2, 0xa3, 0xb8, 0x3e,
  0x32, 0xd9, 0x6b, 0x3d, 0x36, 0x84, 0x1c, 0x3b, 0x0f, 0x8c, 0x83, 0xbd,
  0x4f, 0x51, 0x19, 0xbd, 0x18, 0xaf, 0x9a, 0xbd, 0xaf, 0x2f, 0xc7, 0xbd,
  0x01, 0xdc, 0x92, 0xbe, 0xec, 0x5b, 0x0b, 0x3e, 0xb2, 0xa3, 0x08, 0xbf,
  0x51, 0x70, 0x9c, 0xbe, 0x17, 0xa3, 0xc9, 0xbd, 0xfd, 0x3e, 0xdb, 0xbd,
  0x9c, 0x53, 0x9c, 0xbc, 0x75, 0x39, 0x20, 0x3e, 0x7f, 0xdf, 0x1a, 0x3c,
  0x71, 0xc1, 0x73, 0x3e, 0x39, 0x81, 0x84, 0xbe, 0x4f, 0x83, 0x9c, 0x3d,
  0xae, 0x84, 0xc6, 0x3d, 0x4a, 0x29, 0x9d, 0x3c, 0x99, 0x81, 0x7c, 0x3d,
  0xa2, 0x4a, 0x3e, 0xbe, 0xe9, 0xb9, 0x09, 0xbe, 0x67, 0x8b, 0x2b, 0xbe,
  0x6e, 0xfd, 0x97, 0xbe, 0xdc, 0x8a, 0xee, 0xbd, 0xef, 0x60, 0x2f, 0xbe,
  0x1d, 0x1b, 0x04, 0xbc, 0x93, 0x60, 0xd6, 0x3c, 0x8d, 0x8c, 0x79, 0x3e,
  0xbd, 0x8c, 0xeb, 0xbc, 0x26, 0x85, 0xcc, 0x3e, 0x41, 0x64, 0xb7, 0xbc,
  0x20, 0x04, 0x6f, 0x3c, 0x82, 0x6f, 0xa1, 0x3d, 0x40, 0x8c, 0x87, 0xbd,
  0x03, 0xcc, 0xff, 0x3d, 0x34, 0xf7, 0x81, 0xbd, 0x53, 0x12, 0x0f, 0xbe,
  0xa9, 0x46, 0xd8, 0xbe, 0x9f, 0xfd, 0x91, 0xbe, 0x2e, 0x58, 0xcf, 0xbd,
  0x2b, 0x06, 0x14, 0xbe, 0x1c, 0xea, 0x03, 0xbe, 0xb7, 0x56, 0x98, 0xbe,
  0x78, 0x39, 0x9f, 0x3e, 0xc4, 0x5f, 0x97, 0xbc, 0xba, 0x30, 0xaf, 0x3e,
  0xf5, 0xe8, 0xf3, 0xbc, 0x3e, 0x3b, 0x16, 0xbd, 0xaa, 0x7a, 0x0b, 0x3e,
  0xa0, 0x6e, 0xb8, 0xbd, 0xa7, 0xb4, 0xf6, 0xbe, 0x60, 0x91, 0xec, 0xbe,
  0x59, 0x32, 0xc6, 0xbe, 0x76, 0xa7, 0xcb, 0xbe, 0x59, 0xdd, 0x29, 0xbe,
  0x1f, 0x5c, 0xcc, 0xbe, 0x0b, 0xb1, 0x24, 0x3e, 0x56, 0xac, 0x9a, 0x3b,
  0x0e, 0xa0, 0x23, 0xbf, 0x97, 0x6f, 0x14, 0xbf, 0x68, 0x49, 0xf6, 0xbe,
  0x72, 0xf1, 0x51, 0xbf, 0x25, 0x22, 0x1f, 0xbf, 0x06, 0xe7, 0x0a, 0xbd,
  0x8d, 0x8a, 0x8e, 0xbe, 0x2e, 0xe7, 0xa0, 0xbd, 0x2f, 0x3e, 0x24, 0xbf,
  0x59, 0xb3, 0x82, 0xbe, 0xe1, 0x7b, 0x5c, 0x3e, 0xda, 0xb6, 0x11, 0xbe,
  0xbd, 0x85, 0x4b, 0xbe, 0xc5, 0x37, 0x41, 0x3d, 0x18, 0x17, 0x90, 0x3d,
  0xdc, 0x88, 0xaf, 0xbe, 0x42, 0x9c, 0xaf, 0xbe, 0x7b, 0xa3, 0x12, 0xbe,
  0x05, 0xeb, 0x53, 0x3d, 0x77, 0x58, 0x24, 0xbe, 0x70, 0x6d, 0x7c, 0xbe,
  0x8e, 0xbd, 0x8e, 0xbe, 0x56, 0xfd, 0xc4, 0xbe, 0x5d, 0x5d, 0x80, 0xbe,
  0xf7, 0x2a, 0xb9, 0xbe, 0x18, 0xca, 0xd6, 0xbd, 0xe7, 0x94, 0x3b, 0x3e,
  0x50, 0x7b, 0x31, 0xbe, 0xec, 0xd7, 0x10, 0xbc, 0x69, 0xb7, 0x98, 0xbd,
  0x7f, 0x88, 0xb3, 0x3c, 0xf6, 0x08, 0xb3, 0xb9, 0xa9, 0x68, 0x6a, 0xbe,
  0xd2, 0xff, 0x26, 0xbd, 0xd8, 0xa4, 0x0a, 0x3f, 0xfb, 0x32, 0x4d, 0xbe,
  0x3b, 0x25, 0x4e, 0xbc, 0xdc, 0x32, 0x14, 0xbe, 0x28, 0x4b, 0xfb, 0xbe,
  0x25, 0xc5, 0xdd, 0xbd, 0x91, 0x68, 0x60, 0xbe, 0x13, 0x9a, 0xd7, 0xbd,
  0xe8, 0x9a, 0x4d, 0x3f, 0x3f, 0xfa, 0x49, 0xbb, 0x70, 0x94, 0x69, 0xbd,
  0x64, 0x8a, 0x20, 0xbd, 0x35, 0xd7, 0x95, 0xbd, 0x57, 0x43, 0x5c, 0xbe,
  0x24, 0x52, 0xad, 0xbe, 0x6a, 0xbe, 0x08, 0x3b, 0x8c, 0x5b, 0x19, 0x3f,
  0x5c, 0x23, 0x96, 0xbe, 0x0d, 0x59, 0x8d, 0xbe, 0x02, 0xb7, 0xa5, 0xbd,
  0x83, 0x9c, 0xee, 0xbe, 0xfe, 0xe2, 0x90, 0xbe, 0x00, 0x01, 0xac, 0x3d,
  0x2b, 0xdb, 0x04, 0xbe, 0x51, 0x2f, 0x35, 0x3f, 0x1d, 0x2f, 0x29, 0x3c,
  0xd5, 0xcc, 0x23, 0xbe, 0x1b, 0x71, 0x7d, 0xbe, 0x80, 0xd5, 0x0c, 0xbe,
  0x98, 0x7f, 0xec, 0xbc, 0xcc, 0x2b, 0x05, 0xbe, 0x2e, 0x10, 0x6b, 0xbe,
  0x36, 0x76, 0x2a, 0x3f, 0x95, 0x7a, 0xaa, 0x3d, 0x6d, 0x26, 0xdb, 0xbe,
  0x0e, 0x9e, 0x8a, 0x3d, 0xeb, 0xa6, 0xcc, 0xbe, 0xb3, 0x5e, 0x7e, 0xbe,
  0x4c, 0xd4, 0xa2, 0x3d, 0xd7, 0x18, 0xee, 0xbd, 0xa6, 0xf1, 0x9e, 0x3e,
  0xc4, 0xcd, 0x66, 0xbd, 0x7b, 0x68, 0x2c, 0xbe, 0x10, 0x39, 0x70, 0x3d,
  0x8e, 0xbe, 0x54, 0xbe, 0xd6, 0x83, 0xac, 0xbb, 0xb9, 0x50, 0x8c, 0x3d,
  0xb0, 0x0a, 0x99, 0xbe, 0x3e, 0x19, 0x3e, 0x3f, 0x87, 0xaf, 0x9c, 0x3d,
  0xbe, 0xe5, 0x6b, 0x3c, 0x0a, 0xd9, 0x6e, 0xbe, 0x01, 0x67, 0xe5, 0xbd,
  0x9f, 0x53, 0x49, 0xbe, 0xaf, 0x03, 0x39, 0x3e, 0x5b, 0xb8, 0x76, 0xbd,
  0x5d, 0x9c, 0xa4, 0x3e, 0x21, 0x27, 0xd3, 0xbd, 0x4b, 0xb0, 0x2e, 0xbe,
  0x34, 0x8c, 0xcb, 0x3d, 0x6f, 0xe3, 0x50, 0x3d, 0xcd, 0x28, 0xb9, 0x3d,
  0xcf, 0x68, 0x09, 0xbc, 0x0e, 0x0f, 0xda, 0xbd, 0x43, 0xc7, 0xc5, 0x3e,
  0xee, 0xba, 0x0b, 0x3e, 0x42, 0xbb, 0xd7, 0xbe, 0x64, 0xaf, 0x1a, 0xbd,
  0xd7, 0x70, 0x5f, 0xbe, 0xbf, 0x5a, 0xe6, 0xbd, 0xaa, 0x13, 0xe9, 0x3a,
  0xf5, 0x8d, 0x35, 0xbd, 0x85, 0xff, 0x9b, 0x3e, 0xa0, 0x51, 0xe7, 0xbd,
  0x59, 0xae, 0x48, 0xbd, 0x37, 0xa7, 0x0c, 0xbd, 0x7c, 0xd5, 0xe6, 0xbe,
  0xf6, 0x88, 0x93, 0xbe, 0x28, 0xa9, 0x5b, 0xbe, 0x02, 0x54, 0x9f, 0xbe,
  0x36, 0x9a, 0x8c, 0x3d, 0xa7, 0x29, 0xe9, 0x3c, 0xbd, 0xdc, 0xa2, 0x3c,
  0xa0, 0xf2, 0xb8, 0xbd, 0x51, 0xfa, 0x24, 0xbe, 0xa8, 0x1e, 0x6c, 0xbe,
  0x4f, 0x5b, 0x95, 0xbd, 0x98, 0x72, 0xd5, 0x3e, 0x66, 0x52, 0xfe, 0xbe,
  0x91, 0x82, 0x11, 0x3e, 0x6f, 0x89, 0x63, 0xbd, 0x84, 0x41, 0x8e, 0xbe,
  0x96, 0xbc, 0xbd, 0xbe, 0x20, 0x34, 0xf5, 0xbd, 0xf3, 0xf8, 0xf5, 0xbd,
  0x23, 0x62, 0x0a, 0x3f, 0xca, 0x67, 0xce, 0xbd, 0xcf, 0xbe, 0x89, 0xbd,
  0xfc, 0xde, 0x4d, 0x3c, 0xbf, 0xd8, 0xb4, 0xbe, 0xaa, 0x32, 0xce, 0xbe,
  0xef, 0x40, 0x0f, 0xbf, 0x76, 0xae, 0x73, 0xbe, 0xc4, 0x3c, 0x03, 0xbe,
  0xab, 0x1a, 0xa1, 0xbd, 0x34, 0x49, 0x0f, 0x3d, 0x27, 0xc6, 0x27, 0xbe,
  0xac, 0x8a, 0x4d, 0xbe, 0x2e, 0xef, 0x70, 0xbe, 0xa7, 0xf9, 0x01, 0xbf,
  0xbe, 0x51, 0x7a, 0x3d, 0x35, 0x49, 0xa3, 0x3e, 0x17, 0xa9, 0xb6, 0x3e,
  0x13, 0x5e, 0x8e, 0x3e, 0x17, 0xce, 0x54, 0xbd, 0x34, 0xc3, 0x46, 0xbe,
  0xe6, 0x1c, 0x35, 0xbe, 0x20, 0x61, 0x07, 0xbe, 0xbb, 0x45, 0x94, 0x3e,
  0x0c, 0x6d, 0x75, 0xbe, 0xb3, 0x04, 0x27, 0xbe, 0x64, 0xfa, 0xea, 0x3d,
  0x8c, 0x93, 0x9f, 0xbe, 0x6b, 0xda, 0x01, 0x3e, 0x12, 0x19, 0x12, 0xbe,
  0x4e, 0xe8, 0xf4, 0xbd, 0xfa, 0xf8, 0x0f, 0x3e, 0xbb, 0xf4, 0x92, 0x3d,
  0x2e, 0xf6, 0x46, 0x3c, 0x9b, 0x2c, 0x16, 0x3e, 0x45, 0x29, 0x28, 0xbe,
  0xe5, 0x53, 0x0e, 0x3e, 0x34, 0xa9, 0x3f, 0x3c, 0x0e, 0x2d, 0x31, 0xbd,
  0xd9, 0xd9, 0x76, 0x3e, 0xb2, 0x69, 0x01, 0xbe, 0x1e, 0x5a, 0xee, 0xbe,
  0xfd, 0x0b, 0x56, 0x3d, 0xd0, 0x59, 0xa0, 0xbd, 0x1a, 0xcd, 0xb5, 0xbd,
  0xdb, 0x7a, 0x57, 0x3c, 0x90, 0xf5, 0x47, 0xbd, 0x48, 0xc4, 0x26, 0x3e,
  0xf9, 0xd5, 0x1a, 0x3e, 0xbd, 0x35, 0x55, 0xbe, 0x4e, 0x9a, 0x68, 0x3e,
  0xa9, 0xfa, 0x0c, 0xbe, 0x93, 0x5c, 0x16, 0x3e, 0x22, 0xa9, 0xe7, 0x3d,
  0xee, 0xd7, 0x8c, 0xbd, 0x41, 0x7a, 0x97, 0x3e, 0x37, 0x5e, 0xd4, 0xbd,
  0xe1, 0x55, 0xa3, 0xbe, 0x90, 0x13, 0x52, 0xbc, 0xd2, 0xfe, 0x59, 0xbd,
  0x79, 0x2f, 0x54, 0x3d, 0xf5, 0x7a, 0xf2, 0xbc, 0xab, 0xf6, 0xac, 0xbd,
  0xad, 0xa7, 0xb3, 0x3c, 0xbc, 0x90, 0x9a, 0x3d, 0xc8, 0x28, 0x5c, 0x3e,
  0x62, 0xf0, 0xca, 0x3e, 0x97, 0x53, 0x52, 0xbe, 0xc6, 0x16, 0xa7, 0x3d,
  0x37, 0x69, 0xd5, 0x3d, 0x47, 0x63, 0x97, 0xbd, 0xb5, 0xfc, 0xb9, 0x3e,
  0xf4, 0x02, 0x89, 0xbe, 0xa8, 0xbe, 0x86, 0xbe, 0x01, 0x06, 0xe2, 0x3c,
  0x35, 0x0c, 0x8f, 0xbd, 0x9f, 0xf9, 0x27, 0x3e, 0x92, 0xec, 0x59, 0xbe,
  0x81, 0xc7, 0x10, 0xbe, 0x86, 0x3c, 0x1e, 0xbe, 0xc1, 0xb2, 0x97, 0x3e,
  0xd8, 0x20, 0xdf, 0xbd, 0xd1, 0x4a, 0x84, 0x3e, 0x47, 0x6a, 0xd9, 0xbd,
  0x97, 0xe0, 0xd6, 0xbc, 0xbb, 0xcc, 0x0a, 0x3e, 0xe5, 0xa5, 0x27, 0xbe,
  0xfe, 0x63, 0x29, 0xbd, 0x1d, 0x22, 0xd5, 0xbd, 0x76, 0x20, 0xba, 0xbd,
  0xb4, 0xaf, 0xde, 0xbd, 0x3e, 0x7f, 0x8d, 0x3d, 0x2e, 0x67, 0x87, 0xbd,
  0xe4, 0x76, 0x6c, 0x3c, 0x6d, 0x99, 0xeb, 0xbd, 0x83, 0x81, 0xd9, 0xbe,
  0xbe, 0x2c, 0x10, 0x3e, 0xf7, 0x87, 0x20, 0xbe, 0x3f, 0xea, 0xcc, 0x3d,
  0x38, 0xeb, 0xdf, 0xbd, 0xa9, 0x3a, 0x04, 0x3e, 0x3b, 0x04, 0x7a, 0x3d,
  0x2e, 0x61, 0xb3, 0xbe, 0x82, 0x30, 0x54, 0xbe, 0x52, 0x30, 0x24, 0xbf,
  0xb4, 0xf3, 0x2d, 0xbf, 0x32, 0xfa, 0x11, 0xbf, 0xaf, 0x8b, 0xf4, 0xbd,
  0xf5, 0xe0, 0x2a, 0xbe, 0xb0, 0x45, 0x66, 0x3c, 0x50, 0xa5, 0x80, 0x3e,
  0xb6, 0x3a, 0x45, 0xbf, 0xbd, 0x55, 0x54, 0xbe, 0x1f, 0xd0, 0xe7, 0xbc,
  0xd9, 0x27, 0x3c, 0xbf, 0x7d, 0xc1, 0x29, 0xbf, 0x40, 0xcd, 0xcc, 0x3d,
  0xef, 0x1b, 0x9f, 0x3b, 0x63, 0x4d, 0x09, 0x3e, 0x27, 0x09, 0x0d, 0xbf,
  0x5b, 0xa7, 0x57, 0xbe, 0xbc, 0xa8, 0x57, 0xbd, 0x18, 0xee, 0xb0, 0xbe,
  0x05, 0x02, 0xb4, 0xbd, 0xac, 0x32, 0x14, 0x3d, 0x73, 0x06, 0x38, 0xbd,
  0x6f, 0x52, 0x3a, 0xbe, 0x6c, 0xd1, 0x15, 0xbf, 0x72, 0x86, 0x57, 0xbe,
  0x6f, 0xbe, 0x02, 0xbe, 0x1e, 0xa7, 0xf0, 0xbd, 0xe2, 0x76, 0x91, 0xbc,
  0xb1, 0xbb, 0xed, 0x3c, 0xac, 0x19, 0x82, 0xbd, 0x5b, 0xc5, 0x08, 0x3d,
  0xbf, 0x36, 0xa0, 0xbd, 0x3e, 0xf4, 0x87, 0xbd, 0x85, 0x30, 0x32, 0x3d,
  0x2d, 0xdf, 0x6e, 0xbe, 0xec, 0xc3, 0x38, 0xbe, 0x55, 0xda, 0x0c, 0xbe,
  0x23, 0xdd, 0x12, 0xbe, 0x01, 0xf1, 0x32, 0xbc, 0xc2, 0xf5, 0x15, 0xbf,
  0x98, 0x5e, 0xa9, 0x3d, 0x12, 0xe9, 0x24, 0x3e, 0x2b, 0x64, 0x00, 0xbe,
  0x05, 0x57, 0x34, 0xbd, 0x7f, 0x92, 0x9d, 0xbc, 0x99, 0x22, 0x2f, 0x3c,
  0x66, 0x64, 0x83, 0xbc, 0x34, 0xc6, 0xc5, 0x3d, 0x11, 0xbd, 0xec, 0xbd,
  0x93, 0x43, 0x24, 0x3e, 0x49, 0xc7, 0x5f, 0xbe, 0x72, 0x1b, 0xc2, 0xbd,
  0x12, 0x56, 0xbc, 0x3b, 0xca, 0xdb, 0x52, 0xbe, 0x17, 0x41, 0x0a, 0x3d,
  0x04, 0x05, 0x23, 0xbe, 0x6f, 0x69, 0xb1, 0x3d, 0x91, 0xec, 0x3b, 0x3c,
  0xe7, 0x65, 0xd5, 0xbd, 0xbb, 0x29, 0x8c, 0xbd, 0x98, 0x28, 0x55, 0x3d,
  0x01, 0x65, 0x8c, 0xbd, 0x55, 0x01, 0xce, 0xb9, 0x28, 0x87, 0x96, 0x3e,
  0x3c, 0xaf, 0xf9, 0xbd, 0xc6, 0xaa, 0xda, 0xbe, 0x34, 0x32, 0x0d, 0xbe,
  0x2a, 0x3b, 0xf2, 0xbd, 0x1b, 0x90, 0x1f, 0xbe, 0x36, 0x1c, 0x87, 0x3d,
  0x19, 0x7e, 0xb4, 0xbd, 0x9f, 0x3b, 0xc5, 0xbe, 0xf7, 0xea, 0x7d, 0x3d,
  0xd4, 0xeb, 0xb9, 0xbb, 0x78, 0x32, 0x44, 0xbe, 0x4c, 0x4d, 0x48, 0x3d,
  0xa2, 0x4e, 0x8e, 0xba, 0xc8, 0x32, 0x3e, 0x3d, 0x90, 0x1a, 0x97, 0x3d,
  0x1f, 0xa2, 0x27, 0x3e, 0x44, 0x9b, 0x38, 0xbe, 0x68, 0x34, 0x2c, 0xbe,
  0xc1, 0xec, 0x06, 0xbd, 0xf1, 0x31, 0x6e, 0xbe, 0x8a, 0x72, 0x8e, 0xbe,
  0xc4, 0x4b, 0x82, 0x3d, 0xd1, 0x49, 0x17, 0xbe, 0x25, 0x03, 0x01, 0xbf,
  0x69, 0x32, 0xb3, 0x3d, 0x54, 0x13, 0x6a, 0x3e, 0x01, 0xea, 0xca, 0xbe,
  0x59, 0x1e, 0x6a, 0xbe, 0x40, 0xad, 0x1a, 0x3d, 0xb2, 0x34, 0x03, 0xbd,
  0xfa, 0x20, 0x85, 0x3b, 0x4a, 0x79, 0x12, 0xbe, 0x1f, 0x9e, 0x49, 0xbe,
  0x76, 0x36, 0x11, 0xbe, 0xc6, 0x06, 0x32, 0xbd, 0x8a, 0x8c, 0x96, 0x3d,
  0x58, 0x38, 0xea, 0xbd, 0xc3, 0x67, 0xd2, 0xbd, 0x03, 0xfd, 0xfd, 0xbd,
  0x13, 0x43, 0xbe, 0xbe, 0xb6, 0xab, 0x97, 0xbe, 0x13, 0x69, 0xcc, 0x3c,
  0xd0, 0x0c, 0x4e, 0x3e, 0xc9, 0x7b, 0x7f, 0xbc, 0xbd, 0x21, 0xf7, 0x3d,
  0xbe, 0xa1, 0x0e, 0xbe, 0x20, 0x57, 0x03, 0xbb, 0xa4, 0x6f, 0xb9, 0x3e,
  0x75, 0x4d, 0x85, 0x3c, 0xd2, 0xb3, 0x6c, 0xbe, 0x37, 0x23, 0x0c, 0x3e,
  0x01, 0x8a, 0x12, 0x3a, 0xdd, 0xe6, 0xb5, 0xbe, 0xb2, 0xca, 0xe2, 0xbe,
  0x21, 0x48, 0x94, 0x3e, 0x7b, 0x12, 0xd7, 0xbd, 0x65, 0xf7, 0x00, 0x3e,
  0x4f, 0x73, 0x0d, 0xbb, 0x53, 0x72, 0x9d, 0xbe, 0xed, 0xc3, 0x10, 0xbd,
  0x5d, 0xa6, 0xcc, 0xbd, 0xc4, 0x2a, 0xc3, 0xbe, 0x94, 0x78, 0xa0, 0xbe,
  0x4a, 0x16, 0xb3, 0xbe, 0x2b, 0x88, 0xc0, 0xbc, 0x0b, 0x84, 0x20, 0xbe,
  0x30, 0xc5, 0x92, 0x3c, 0xbd, 0x61, 0x0c, 0xbe, 0x91, 0x56, 0x3e, 0xbe,
  0xec, 0x35, 0x3b, 0xbe, 0x62, 0xd0, 0x56, 0xbe, 0xeb, 0x4e, 0xb1, 0x3c,
  0xb5, 0xff, 0xd5, 0x3d, 0x3b, 0xb6, 0x01, 0xbd, 0xd9, 0x28, 0x10, 0x3e,
  0x03, 0xbb, 0x2e, 0xbe, 0xdd, 0x27, 0x41, 0x3e, 0x36, 0xe2, 0x50, 0x3e,
  0x3e, 0x61, 0x95, 0xbe, 0xbf, 0x95, 0x9f, 0xbc, 0x31, 0xca, 0x37, 0xbd,
  0x00, 0xbf, 0xd4, 0xbd, 0x03, 0x8d, 0x16, 0xbe, 0x72, 0x11, 0x6e, 0x3d,
  0xe8, 0x86, 0xbd, 0x3d, 0x3f, 0x00, 0x86, 0xbd, 0x35, 0xdd, 0x03, 0xbd,
  0x6c, 0xf7, 0xdd, 0x3d, 0x7d, 0x81, 0xa5, 0xbe, 0xba, 0xa5, 0x40, 0x3e,
  0xe5, 0xd7, 0x6a, 0x3e, 0x09, 0xbf, 0x6d, 0xbe, 0xab, 0x04, 0x22, 0xbe,
  0x27, 0x80, 0x60, 0xbe, 0x85, 0xc2, 0x0a, 0xbe, 0xb7, 0xf2, 0x22, 0xbd,
  0x99, 0x22, 0x35, 0x3d, 0x9d, 0xfa, 0x36, 0x3c, 0x78, 0x6e, 0x3a, 0x3e,
  0xfa, 0x6b, 0x08, 0xbd, 0x14, 0x58, 0x12, 0x3e, 0xd0, 0x11, 0x38, 0xbc,
  0x0e, 0xd7, 0x45, 0xbe, 0xa0, 0xf3, 0x1b, 0xbd, 0x13, 0xc5, 0x9d, 0xbe,
  0x67, 0x3e, 0x06, 0x3e, 0x32, 0xbf, 0x2f, 0x3e, 0xb2, 0xf6, 0x95, 0xbc,
  0x71, 0xa9, 0x1a, 0xbe, 0xac, 0xb7, 0xcc, 0xbd, 0xcb, 0x51, 0x70, 0xbe,
  0x8c, 0x44, 0x8f, 0xbd, 0x7a, 0x50, 0xf6, 0x3d, 0x9d, 0x44, 0x24, 0x3d,
  0x2e, 0x64, 0xfc, 0x3d, 0x74, 0xe7, 0x2f, 0xbe, 0xb7, 0x00, 0x12, 0xbe,
  0xdf, 0x48, 0xa7, 0xbe, 0x86, 0x9a, 0x2e, 0x3d, 0x37, 0x6d, 0xb5, 0xbc,
  0x20, 0x09, 0x25, 0xbe, 0xee, 0xa9, 0x14, 0xbe, 0x9e, 0x9a, 0xb0, 0x3c,
  0x26, 0x0e, 0x6a, 0xbe, 0xea, 0x33, 0x85, 0xbe, 0x21, 0xc9, 0x37, 0xbe,
  0xfc, 0xf0, 0x2c, 0xbe, 0x01, 0x89, 0xa9, 0xbd, 0x6d, 0x9d, 0x10, 0xbe,
  0xa0, 0xee, 0xc3, 0xbe, 0x31, 0x93, 0x87, 0xbd, 0xbc, 0xb2, 0x1b, 0xbe,
  0x3a, 0x23, 0x04, 0x3d, 0x0f, 0x7a, 0xa3, 0x3d, 0x92, 0xb5, 0x59, 0x3c,
  0x87, 0xdf, 0x18, 0x3b, 0x58, 0x12, 0xef, 0xbd, 0x37, 0xdb, 0x1c, 0xbe,
  0x2a, 0x2a, 0xdc, 0xbd, 0x51, 0xbe, 0xc0, 0xbd, 0xee, 0xba, 0x73, 0xbe,
  0xd1, 0x05, 0x05, 0xbe, 0x35, 0xed, 0x58, 0xbe, 0x1a, 0xae, 0xec, 0xbd,
  0x5e, 0xbc, 0x30, 0x3e, 0xcf, 0xdc, 0x2c, 0x3d, 0x45, 0x4e, 0x44, 0xbc,
  0xf5, 0xc7, 0x05, 0x3e, 0x95, 0x60, 0x57, 0x3d, 0xe9, 0x9e, 0x7e, 0x3d,
  0x91, 0xb1, 0x14, 0xbe, 0x43, 0x49, 0x08, 0x3e, 0xed, 0x44, 0x2a, 0x3d,
  0x27, 0x1f, 0x3d, 0x3b, 0xf1, 0x5f, 0x43, 0xbd, 0xc7, 0xed, 0x16, 0x3c,
  0xa6, 0xa8, 0x2e, 0x3d, 0x40, 0xef, 0x60, 0xbd, 0x87, 0x74, 0x0a, 0xbe,
  0x7f, 0xab, 0x09, 0xbc, 0x36, 0x12, 0xfd, 0xbd, 0x24, 0x3a, 0x59, 0x3e,
  0xa7, 0x4b, 0xac, 0xbd, 0x05, 0xd7, 0x1d, 0xbe, 0x57, 0xe0, 0x89, 0x3e,
  0x1e, 0xa5, 0x08, 0x3d, 0x35, 0xa7, 0x9f, 0xbe, 0x5a, 0x67, 0x1d, 0xbe,
  0x1c, 0xff, 0x90, 0x3e, 0xa6, 0x41, 0xa9, 0xbe, 0x9a, 0xed, 0x90, 0x3e,
  0x38, 0x93, 0x95, 0xbe, 0x1e, 0xca, 0x7c, 0xbe, 0xb0, 0x9f, 0x7d, 0xbd,
  0x89, 0x8a, 0x0f, 0xbf, 0x60, 0x0b, 0xe9, 0xbe, 0x99, 0x2b, 0xcd, 0xbd,
  0x16, 0xa3, 0x72, 0x3e, 0x39, 0x81, 0x30, 0x3d, 0xc5, 0x62, 0x25, 0xbe,
  0x97, 0x07, 0xf1, 0x3d, 0xa8, 0xe5, 0x07, 0x3b, 0x6d, 0x5c, 0xc5, 0xbc,
  0xf8, 0x39, 0xc5, 0xbd, 0x86, 0x66, 0x42, 0x3e, 0x4c, 0xb0, 0xdc, 0x3e,
  0xc9, 0x88, 0xcb, 0x3c, 0xcc, 0xb2, 0xaf, 0xbe, 0x7e, 0x02, 0xf4, 0xbb,
  0x5f, 0xd8, 0x42, 0xbd, 0x2d, 0x70, 0x32, 0x3c, 0x18, 0x95, 0xe6, 0xbc,
  0xa2, 0x56, 0x88, 0xbd, 0x00, 0x77, 0x9e, 0x3d, 0xf4, 0x98, 0xa5, 0xbd,
  0x93, 0x06, 0x17, 0x3c, 0xb6, 0xd4, 0x7d, 0x3e, 0x72, 0xa1, 0x3c, 0x3e,
  0x82, 0x66, 0xc6, 0xbd, 0x6c, 0xaa, 0x0f, 0xbd, 0xba, 0xbf, 0x8d, 0xbd,
  0x02, 0xd4, 0x32, 0x3e, 0x5f, 0x12, 0x17, 0x3e, 0x54, 0x5e, 0x67, 0xbe,
  0x22, 0x77, 0x03, 0x3d, 0x4f, 0xc9, 0x3f, 0x3d, 0xf9, 0xe8, 0xb3, 0x3b,
  0xf6, 0x6b, 0xb8, 0x3c, 0x1d, 0xe3, 0x69, 0xbe, 0xd5, 0xc1, 0xc0, 0x3e,
  0x49, 0x65, 0x9e, 0xbe, 0xab, 0xfb, 0x53, 0x3d, 0x68, 0xa6, 0xb2, 0xbd,
  0xb1, 0x51, 0x89, 0x3e, 0xd0, 0x7e, 0xc6, 0xbd, 0x00, 0xaf, 0x6e, 0xbd,
  0xd9, 0xc9, 0x61, 0xbe, 0x72, 0xd1, 0x38, 0x3e, 0xe7, 0xec, 0x74, 0x3d,
  0xfc, 0x6a, 0x8f, 0x3d, 0x4a, 0xbc, 0x35, 0xbb, 0xd4, 0x55, 0x23, 0xbd,
  0xe7, 0x0c, 0x9e, 0xbc, 0x6c, 0xe4, 0xb8, 0x3d, 0x76, 0x58, 0xba, 0x3b,
  0x7c, 0xcb, 0x6a, 0x3d, 0xef, 0xf9, 0x74, 0xbc, 0x16, 0x15, 0xf4, 0x3c,
  0x53, 0x30, 0x07, 0x3e, 0x37, 0xac, 0x33, 0x3e, 0x62, 0x2c, 0xf8, 0x3d,
  0x5b, 0x37, 0xad, 0xbe, 0x7a, 0xff, 0xa2, 0xbe, 0x37, 0x44, 0x6b, 0x3e,
  0x71, 0x16, 0x86, 0x3d, 0xa4, 0x3d, 0x2e, 0xbe, 0x9e, 0xe9, 0xa2, 0xbd,
  0x2b, 0x33, 0x67, 0xbd, 0x69, 0x92, 0x89, 0xbd, 0x9d, 0x61, 0xa6, 0xbc,
  0xaa, 0x1c, 0x15, 0xbe, 0x56, 0xb9, 0x8b, 0x3d, 0xb6, 0x1c, 0x0d, 0xbd,
  0x3a, 0x20, 0x72, 0xbd, 0x93, 0xeb, 0xec, 0x3d, 0x9f, 0x85, 0x86, 0xbd,
  0x12, 0xf7, 0xcb, 0xbb, 0xed, 0x27, 0xe3, 0xbe, 0xcb, 0xf1, 0xd6, 0xbd,
  0x02, 0x01, 0xe1, 0x3d, 0x12, 0x79, 0x35, 0x3e, 0xe5, 0x57, 0x8b, 0xbe,
  0xb0, 0x94, 0xee, 0xbd, 0x6c, 0x74, 0xac, 0xbd, 0xde, 0x2f, 0xa0, 0x3d,
  0x19, 0x76, 0x42, 0x3e, 0xe0, 0xf3, 0xa5, 0xbb, 0xe1, 0xbb, 0x27, 0x3e,
  0x97, 0xbb, 0x14, 0xbe, 0x06, 0x5a, 0xce, 0x3c, 0x86, 0x4e, 0x81, 0x3e,
  0x40, 0xb7, 0xa1, 0x3d, 0x6d, 0xc4, 0xcf, 0x3d, 0x34, 0x41, 0x0c, 0x3d,
  0x80, 0x6c, 0x9f, 0x3d, 0xda, 0xb8, 0xf3, 0x3d, 0x6d, 0xc6, 0xa7, 0x3d,
  0x86, 0x19, 0x05, 0xbd, 0xd2, 0xf1, 0x18, 0x3e, 0xb4, 0x46, 0x08, 0x3e,
  0x22, 0xc6, 0x02, 0xbc, 0x8a, 0x8e, 0x9f, 0xbd, 0xf1, 0x73, 0x6a, 0xbe,
  0xee, 0x81, 0xc7, 0x3b, 0x19, 0x5c, 0x5f, 0x3d, 0x91, 0x06, 0x88, 0xbd,
  0x44, 0x28, 0x47, 0xbe, 0x28, 0xec, 0x79, 0x3d, 0x1c, 0x1f, 0x1e, 0xbe,
  0x71, 0x9e, 0xb8, 0xbd, 0xbe, 0x24, 0xcd, 0xbe, 0xc6, 0x87, 0x5f, 0xbe,
  0x2f, 0x7a, 0x18, 0xbe, 0x10, 0xce, 0xfc, 0x3d, 0xec, 0x3f, 0x00, 0xbf,
  0xe3, 0x30, 0x20, 0xbe, 0x8c, 0x75, 0x15, 0xbe, 0x6e, 0xaa, 0x11, 0xbe,
  0x2f, 0x69, 0xd5, 0x3d, 0x1e, 0x5b, 0x18, 0xbe, 0xf2, 0xd9, 0x0c, 0xbc,
  0xf8, 0x29, 0xa2, 0xbd, 0xfd, 0x24, 0x55, 0xbe, 0x6c, 0x58, 0x92, 0xbe,
  0x6f, 0x89, 0x55, 0xbe, 0x51, 0x61, 0x40, 0xbd, 0x79, 0xf2, 0x8a, 0x3e,
  0xc4, 0xd3, 0x0c, 0xbe, 0x64, 0x19, 0xdb, 0x3a, 0xfd, 0x35, 0x2f, 0xbd,
  0x63, 0xe3, 0xeb, 0xbe, 0x4c, 0x4e, 0xb5, 0xbd, 0xdf, 0x17, 0x97, 0xbe,
  0x59, 0x00, 0xf1, 0xbd, 0x7c, 0xee, 0x04, 0xbb, 0x4e, 0x0e, 0x7f, 0xbe,
  0x37, 0x46, 0x32, 0x3e, 0xc6, 0x36, 0x2e, 0xbe, 0x49, 0xee, 0x1d, 0x3d,
  0x67, 0x0a, 0x80, 0x3d, 0x66, 0x6b, 0x54, 0xbe, 0x8a, 0x2b, 0x21, 0xbe,
  0x50, 0xeb, 0x2a, 0xbd, 0x94, 0x88, 0xa1, 0x3c, 0x6a, 0xe4, 0x3d, 0xbd,
  0xff, 0x9e, 0x94, 0xbb, 0x07, 0x78, 0x76, 0xbe, 0x1e, 0x65, 0x8b, 0xbe,
  0xea, 0xb1, 0x36, 0xbe, 0x31, 0x3d, 0x8d, 0x3e, 0x37, 0x38, 0xff, 0xbc,
  0xe1, 0x82, 0x53, 0xbe, 0x7d, 0xcd, 0x5b, 0xbc, 0xfc, 0x4a, 0x72, 0xbd,
  0xb3, 0x37, 0x99, 0xbd, 0xbe, 0xc2, 0xe7, 0xbd, 0xc6, 0x6a, 0xeb, 0xbe,
  0xec, 0x7a, 0x65, 0x3d, 0x25, 0xaa, 0x23, 0x3e, 0x32, 0x45, 0x1e, 0xbc,
  0xeb, 0xe3, 0x9b, 0x3d, 0x15, 0x58, 0xe9, 0x3d, 0xad, 0xa4, 0x3a, 0xbe,
  0x98, 0x15, 0x97, 0xbd, 0xd8, 0xd5, 0xa8, 0xbe, 0x77, 0x41, 0x82, 0x3e,
  0x25, 0x84, 0x8b, 0x3d, 0x0e, 0x66, 0x56, 0xbe, 0x6f, 0xb8, 0x96, 0x3b,
  0x23, 0x1c, 0xcb, 0xbe, 0x22, 0x04, 0xb9, 0xbd, 0xd7, 0x6e, 0xfe, 0xbd,
  0xcd, 0x08, 0x22, 0xbb, 0x1e, 0xd1, 0x8f, 0xbd, 0xea, 0x89, 0x51, 0x3e,
  0x58, 0x8e, 0xe1, 0xb8, 0xb3, 0xd6, 0x0d, 0x3e, 0x6d, 0xde, 0x1e, 0x3c,
  0x69, 0x42, 0x22, 0x3e, 0xa0, 0xc7, 0xa2, 0x3e, 0xd9, 0xf3, 0x8f, 0x3c,
  0xd3, 0x68, 0x2a, 0xbc, 0x8b, 0x3f, 0x51, 0xbe, 0x78, 0xb4, 0x8b, 0xbe,
  0x7c, 0x50, 0xea, 0x3c, 0xf2, 0x9d, 0x9f, 0x3c, 0x0c, 0x36, 0x44, 0xbd,
  0x57, 0x2d, 0x56, 0xbd, 0x95, 0xbc, 0x2c, 0x3d, 0x27, 0xf1, 0x1d, 0xbe,
  0x73, 0x0a, 0x9c, 0x3e, 0x51, 0xbd, 0x6b, 0xbe, 0x2d, 0xa9, 0xd0, 0x3d,
  0xf9, 0xda, 0x18, 0x3d, 0xae, 0xbd, 0xd8, 0x3d, 0x3e, 0xdc, 0x2c, 0x3e,
  0xc1, 0xa4, 0x9e, 0xbc, 0x2f, 0x22, 0xee, 0xbb, 0x7c, 0xbc, 0x95, 0x3d,
  0x8a, 0x23, 0xba, 0xbd, 0xd3, 0x5f, 0x78, 0xbd, 0xa4, 0xf5, 0xa1, 0xbe,
  0x09, 0x22, 0x2f, 0xbd, 0xe9, 0x9a, 0x28, 0x3c, 0xdd, 0xd2, 0x76, 0xbc,
  0x3c, 0xbc, 0xc6, 0xbe, 0x46, 0x0d, 0xe1, 0xbe, 0xdc, 0xef, 0x39, 0xbe,
  0x69, 0xe2, 0xbb, 0xbc, 0xa3, 0x2f, 0x2e, 0x3e, 0x78, 0x9e, 0xa8, 0xbd,
  0x57, 0x63, 0x96, 0xbd, 0x55, 0xcf, 0x28, 0xbe, 0xd0, 0x05, 0x90, 0xbe,
  0xcf, 0xff, 0xd7, 0x3e, 0x4f, 0xfe, 0xa1, 0x3d, 0xaf, 0x1f, 0x0e, 0x3f,
  0x1a, 0x0b, 0xa1, 0xbc, 0x36, 0xef, 0x65, 0xbe, 0x97, 0x0c, 0x8f, 0xbd,
  0x1e, 0x61, 0xa8, 0xbd, 0x75, 0x1e, 0xe7, 0x3d, 0x16, 0x4e, 0x28, 0x3d,
  0x9f, 0x31, 0xd9, 0xbb, 0x1d, 0x32, 0x9a, 0xbd, 0x6a, 0x62, 0xe1, 0x3e,
  0x11, 0xdb, 0x0b, 0xbf, 0xd4, 0xbf, 0x2a, 0xbe, 0x1f, 0x3c, 0x37, 0xbd,
  0x2e, 0x1f, 0x7f, 0xbc, 0xe0, 0xcc, 0xd0, 0x3e, 0x09, 0x27, 0x57, 0xbe,
  0x3c, 0xe1, 0x4b, 0x3e, 0x2e, 0xc4, 0x86, 0x3e, 0xfc, 0x94, 0x68, 0xbe,
  0xa2, 0x73, 0x1a, 0x3e, 0x24, 0x32, 0x8e, 0xbe, 0xbd, 0x0d, 0x20, 0x3d,
  0x0d, 0x7e, 0x23, 0x3e, 0xa1, 0xa1, 0x3c, 0xbe, 0xfc, 0x7b, 0x9b, 0xbd,
  0x1e, 0x80, 0x84, 0x3e, 0xfc, 0x9f, 0xc4, 0xbe, 0xf8, 0x67, 0xfc, 0x3c,
  0x4b, 0xd8, 0xb8, 0x3c, 0xef, 0xd7, 0x64, 0x3e, 0x3c, 0x6b, 0x58, 0x3e,
  0xe8, 0x01, 0xe3, 0x3d, 0x96, 0x02, 0xcb, 0x3d, 0x80, 0x67, 0xdc, 0x3d,
  0x4c, 0x59, 0x32, 0xbd, 0x8a, 0x12, 0xdb, 0x3d, 0x78, 0xab, 0x41, 0xbd,
  0xe5, 0x07, 0x0d, 0x3d, 0x42, 0xb0, 0x61, 0x3d, 0xc4, 0x9d, 0x5a, 0xbd,
  0x26, 0x90, 0x44, 0xbd, 0x6a, 0x02, 0x8e, 0x3e, 0xaa, 0xac, 0xa2, 0xbe,
  0x4b, 0x1d, 0x7a, 0x3d, 0x11, 0xe6, 0xc8, 0xbc, 0x61, 0xc2, 0xf5, 0x3d,
  0x0f, 0x5b, 0x21, 0x3e, 0x13, 0x4a, 0x90, 0x3d, 0xd3, 0xbe, 0x40, 0x3e,
  0x77, 0xc9, 0xdc, 0x3d, 0x78, 0xca, 0xd7, 0xbd, 0x5e, 0x7c, 0x86, 0x3d,
  0x08, 0x75, 0xd8, 0x3d, 0xd2, 0x97, 0x40, 0x3d, 0xe1, 0x01, 0x9d, 0xbd,
  0xff, 0xa5, 0x7a, 0x3b, 0x55, 0xb2, 0x2c, 0xbd, 0x03, 0x7b, 0x7a, 0x3e,
  0xc0, 0x6e, 0x51, 0xbe, 0xf2, 0x6d, 0x51, 0xbd, 0xf9, 0xaa, 0x11, 0xbd,
  0x5d, 0x5c, 0x07, 0x3e, 0x78, 0xd2, 0x8d, 0x3e, 0x12, 0x7d, 0x95, 0x3e,
  0x4c, 0x80, 0x94, 0x3e, 0x2d, 0x4a, 0xe2, 0x3d, 0xa1, 0x2b, 0x85, 0xbe,
  0x86, 0x1f, 0x0b, 0x3e, 0x03, 0xa3, 0x0e, 0x3e, 0x6a, 0x35, 0x76, 0xbd,
  0xbb, 0x85, 0x86, 0xbd, 0x9d, 0x51, 0xef, 0x3d, 0x61, 0x71, 0x82, 0xbe,
  0x89, 0xa9, 0x80, 0x3e, 0x51, 0xdc, 0xff, 0xbd, 0x96, 0x9d, 0x05, 0x3d,
  0x2e, 0x86, 0x28, 0x3d, 0x79, 0x38, 0x66, 0xbd, 0xe9, 0x93, 0x3f, 0x3e,
  0x42, 0x00, 0xff, 0xbc, 0x5f, 0x62, 0xb5, 0x39, 0x9c, 0xa1, 0x7f, 0x3d,
  0x58, 0x77, 0x82, 0xbe, 0xbe, 0x9e, 0x5c, 0xbd, 0x2a, 0xab, 0x6f, 0x3d,
  0xad, 0xcb, 0x87, 0xbd, 0x96, 0x13, 0x52, 0xbe, 0x93, 0x2c, 0x0c, 0x3e,
  0xaf, 0x52, 0x3e, 0xbe, 0x2a, 0xa9, 0x81, 0x3e, 0x96, 0x97, 0x3f, 0xbe,
  0x00, 0xdb, 0xd3, 0x3d, 0x9c, 0x61, 0x53, 0xbc, 0x72, 0xfa, 0x82, 0x3e,
  0x1a, 0x41, 0xeb, 0x3d, 0xc6, 0xe6, 0xda, 0x3d, 0xe6, 0x94, 0x69, 0x3e,
  0x28, 0x83, 0x7f, 0x3e, 0x10, 0x8f, 0xf9, 0x3b, 0xef, 0x72, 0x73, 0xbe,
  0xcc, 0x87, 0x67, 0xbc, 0x96, 0x95, 0x68, 0xbe, 0x77, 0xd7, 0x77, 0xbb,
  0x61, 0x31, 0x85, 0xbd, 0xbc, 0xc1, 0x6b, 0x3d, 0x16, 0xe2, 0xd0, 0x3e,
  0xf2, 0x2d, 0x4f, 0xbe, 0xb7, 0x9e, 0x5e, 0x3d, 0x65, 0x37, 0x13, 0xbd,
  0x8d, 0x82, 0xc5, 0x3c, 0xa3, 0xaa, 0xe8, 0x3e, 0xf8, 0x75, 0x81, 0x3d,
  0xc8, 0x26, 0xd7, 0x3e, 0x2c, 0xe4, 0x01, 0x3e, 0xf8, 0xb8, 0x26, 0xbd,
  0x1f, 0x70, 0x46, 0x3d, 0x5d, 0x8e, 0xbc, 0xbd, 0x30, 0x53, 0xac, 0xbd,
  0x68, 0x9d, 0x9a, 0xbd, 0x3d, 0xcd, 0x22, 0x3e, 0x4e, 0x8b, 0x2f, 0x3e,
  0x11, 0xa2, 0xc1, 0x3e, 0xd4, 0xc3, 0xa3, 0xbe, 0x68, 0x20, 0x3e, 0xbd,
  0x6e, 0x6e, 0x06, 0xbc, 0x5d, 0xb3, 0x53, 0xbe, 0xd7, 0xc1, 0x6a, 0x3e,
  0xb7, 0xd4, 0x00, 0x3e, 0x80, 0x8c, 0x8f, 0x3e, 0x5b, 0x47, 0xb5, 0x3d,
  0x4f, 0x48, 0x0a, 0x3d, 0xd9, 0x32, 0x8d, 0xbd, 0xa4, 0xf4, 0x8a, 0xbd,
  0x53, 0x46, 0x7a, 0xbd, 0x14, 0xe8, 0x84, 0xbc, 0x3e, 0x51, 0xdd, 0xbc,
  0xd9, 0xec, 0x8f, 0xbe, 0x6a, 0xed, 0xaf, 0x3e, 0x5e, 0x27, 0x82, 0xbe,
  0x97, 0x45, 0x0b, 0xbe, 0x16, 0x9b, 0xdd, 0x3c, 0xf6, 0x4d, 0xeb, 0xbd,
  0xb2, 0x8e, 0x16, 0x3e, 0xd1, 0xb9, 0x1a, 0x3e, 0xf3, 0x6c, 0x4d, 0x3e,
  0x7c, 0xc7, 0x89, 0x3e, 0x0a, 0x93, 0x36, 0xbe, 0x95, 0x9e, 0x40, 0x3d,
  0x5e, 0x38, 0xbe, 0xba, 0x76, 0xe1, 0xd4, 0xbc, 0x87, 0x1c, 0x0d, 0x3d,
  0x12, 0x20, 0x4e, 0x3d, 0xb9, 0xcb, 0x71, 0xbe, 0x5c, 0x5a, 0x9d, 0x3e,
  0x91, 0x42, 0x5e, 0xbd, 0x7b, 0xfc, 0x85, 0xbd, 0xd0, 0x11, 0x18, 0x3d,
  0x31, 0x2f, 0xce, 0xbd, 0x1a, 0x15, 0x9e, 0x3e, 0xc2, 0x57, 0x77, 0x3e,
  0x38, 0x7c, 0x8a, 0x3e, 0x76, 0xa7, 0x0b, 0xbe, 0x28, 0x4f, 0x98, 0xbe,
  0x58, 0xc7, 0xa0, 0x3c, 0xc6, 0x11, 0x26, 0xbd, 0x2b, 0x35, 0x2f, 0xbe,
  0x2d, 0xff, 0x03, 0xbe, 0x6d, 0xb9, 0x54, 0x3e, 0x95, 0xd0, 0x56, 0xbd,
  0x23, 0x05, 0x7b, 0x3e, 0x33, 0x77, 0xbe, 0xbc, 0x3c, 0xbf, 0xd3, 0xbd,
  0x46, 0x4f, 0x81, 0x3c, 0xc3, 0x5c, 0x57, 0xbc, 0x7e, 0x0d, 0x8a, 0x3e,
  0xe5, 0x9f, 0xf1, 0x3d, 0xde, 0x4c, 0xae, 0x3e, 0x07, 0xd3, 0x6c, 0x3c,
  0x20, 0xab, 0xbe, 0xbd, 0x8a, 0x8e, 0x83, 0x3b, 0x5e, 0x1e, 0x90, 0x3d,
  0x91, 0x01, 0x14, 0xbe, 0x1e, 0x21, 0x10, 0xbd, 0xe0, 0x95, 0x05, 0xbc,
  0x1c, 0x75, 0x97, 0xbd, 0x3f, 0x9a, 0x61, 0x3e, 0x37, 0x87, 0x3c, 0xbd,
  0x98, 0x5f, 0xbd, 0xbc, 0xeb, 0x03, 0x2f, 0xbd, 0xe7, 0x85, 0x81, 0x3b,
  0x30, 0xfc, 0x96, 0x3e, 0x3c, 0x7e, 0x4f, 0x3d, 0x6e, 0xe1, 0x65, 0x3e,
  0xa5, 0x2b, 0x07, 0x3e, 0x2a, 0xc6, 0xb7, 0x3d, 0x5b, 0x68, 0x9f, 0xbd,
  0xae, 0xd9, 0x02, 0x3d, 0xf0, 0x9b, 0x52, 0xbd, 0x98, 0x28, 0x1a, 0x3e,
  0xd8, 0x57, 0x1a, 0x3e, 0x80, 0xf4, 0x47, 0x3c, 0x7d, 0x62, 0xa0, 0x3e,
  0xc0, 0xf1, 0x9f, 0xbd, 0x66, 0x09, 0x15, 0xbe, 0xcf, 0x2e, 0xcb, 0x3c,
  0x6b, 0xa7, 0x02, 0x3b, 0x46, 0x65, 0x2c, 0x3e, 0xe4, 0xfe, 0x92, 0x3e,
  0x69, 0x9f, 0x2c, 0x3e, 0x95, 0xd2, 0xcd, 0x3c, 0x9b, 0x49, 0xcd, 0xba,
  0xb0, 0x6e, 0xd6, 0x3d, 0x3d, 0x29, 0xae, 0x3d, 0xa7, 0x6f, 0x91, 0xbd,
  0x97, 0x0c, 0x17, 0xbe, 0x14, 0x90, 0x02, 0xbc, 0x64, 0x65, 0x54, 0xbe,
  0x48, 0x77, 0xc7, 0x3e, 0x10, 0xf8, 0x73, 0xbe, 0x5d, 0x5d, 0x4b, 0xbd,
  0x2d, 0x5d, 0x0e, 0xbd, 0xf5, 0x24, 0x5a, 0xbe, 0x0a, 0xe3, 0xee, 0xbe,
  0x75, 0x53, 0x33, 0xbf, 0x12, 0xdc, 0x7a, 0xbf, 0x28, 0x9e, 0xee, 0xbc,
  0xbc, 0xda, 0x32, 0xbe, 0x61, 0x81, 0xc9, 0x3e, 0x67, 0x11, 0x26, 0x3d,
  0x72, 0xf9, 0xaa, 0x3e, 0x7e, 0x41, 0xe8, 0xbe, 0x4f, 0xf8, 0xa8, 0xbd,
  0x6d, 0x2f, 0x0f, 0xbf, 0x2f, 0xc0, 0x42, 0xbf, 0xaf, 0x17, 0x03, 0x3e,
  0x1b, 0xf9, 0xa1, 0xbd, 0x9a, 0xbd, 0x4a, 0x3e, 0xc9, 0xe1, 0xd9, 0xbc,
  0xeb, 0x96, 0x3d, 0xbd, 0x01, 0x65, 0x14, 0x3e, 0x2e, 0x93, 0xb1, 0xbe,
  0x62, 0x16, 0xac, 0xbd, 0x87, 0xe8, 0x09, 0xbd, 0x4b, 0x15, 0xce, 0x3d,
  0xda, 0x07, 0x1c, 0xbe, 0x98, 0xa5, 0x56, 0x3e, 0x7b, 0x0c, 0x8f, 0xbe,
  0x2b, 0x6c, 0x4d, 0xbe, 0x57, 0x88, 0xb4, 0xbe, 0xf6, 0x81, 0x74, 0xbe,
  0x84, 0xec, 0x03, 0x3d, 0xd8, 0xfd, 0x27, 0xbd, 0x9d, 0xeb, 0x4d, 0x3d,
  0xb6, 0x7e, 0xfb, 0xbe, 0xcd, 0x76, 0xe7, 0xbd, 0x3d, 0x56, 0x14, 0x3d,
  0x68, 0x77, 0x78, 0xbd, 0xf2, 0x77, 0xd3, 0xbd, 0x85, 0x68, 0x3a, 0x3d,
  0x24, 0x87, 0xe4, 0xbd, 0x22, 0x1e, 0xe7, 0x3c, 0x80, 0xbb, 0xad, 0x3e,
  0x9a, 0xf2, 0x95, 0xbc, 0xca, 0xad, 0xb6, 0xbd, 0x00, 0x15, 0xa4, 0xbd,
  0xd6, 0x2f, 0xdc, 0xbd, 0x15, 0xd8, 0x71, 0x39, 0x4b, 0x20, 0x8b, 0x3c,
  0xf8, 0x4a, 0xca, 0x3c, 0x1d, 0xfa, 0xfb, 0xbe, 0xd6, 0x79, 0xaa, 0xbd,
  0x50, 0xc3, 0x8d, 0x3e, 0xd1, 0xce, 0x44, 0xbe, 0x3f, 0x92, 0x1e, 0x3d,
  0x41, 0x16, 0x52, 0x3e, 0x17, 0xbb, 0x3e, 0xbd, 0xa1, 0xac, 0xaa, 0xbd,
  0x5c, 0x49, 0x52, 0x3e, 0x8b, 0xef, 0x59, 0xbd, 0x75, 0x63, 0x91, 0x3d,
  0xba, 0xd7, 0x36, 0xbd, 0xb5, 0x4c, 0xc1, 0xbe, 0x77, 0xec, 0x3d, 0x3d,
  0x94, 0xfe, 0xd7, 0xbc, 0x63, 0x19, 0x1f, 0xbc, 0x74, 0x3d, 0x4b, 0xbf,
  0x2f, 0xaa, 0x8a, 0xbd, 0xff, 0xd0, 0x31, 0x3c, 0xed, 0x83, 0xf5, 0xbd,
  0xc9, 0xd6, 0xb0, 0xbd, 0xf9, 0xab, 0x1a, 0xbe, 0xa1, 0x08, 0x54, 0xbe,
  0xcf, 0xd6, 0xd4, 0xbc, 0x67, 0xa0, 0x74, 0x3e, 0xc1, 0x69, 0xa2, 0x3c,
  0x59, 0x10, 0xed, 0x3d, 0xec, 0xa5, 0x6d, 0xbd, 0xc6, 0x62, 0x7b, 0xbe,
  0xaa, 0xbf, 0x04, 0x3d, 0xac, 0x55, 0xf1, 0xbc, 0xcc, 0x15, 0x0f, 0xbc,
  0x2e, 0xb8, 0x5b, 0xbf, 0x83, 0x08, 0xf7, 0x3d, 0xbd, 0xa0, 0x2b, 0x3d,
  0xdc, 0xb2, 0x9d, 0xbe, 0x33, 0x73, 0xb6, 0xbe, 0xcb, 0xc3, 0xcd, 0x3c,
  0x9c, 0x21, 0x04, 0x3d, 0x3c, 0xeb, 0x3e, 0xbe, 0x86, 0x33, 0x9f, 0x3e,
  0x04, 0x3b, 0x57, 0xbe, 0x83, 0xdf, 0x42, 0x3e, 0xfe, 0x36, 0x7b, 0xbe,
  0x88, 0x01, 0xce, 0xbe, 0xb4, 0x4c, 0x1b, 0xba, 0x3b, 0xc7, 0xa3, 0xbd,
  0x17, 0x9c, 0xa5, 0x3c, 0x27, 0x85, 0x84, 0xbf, 0x0c, 0x2f, 0x91, 0xbd,
  0x71, 0xc1, 0x0c, 0xbf, 0xaa, 0xf0, 0x0f, 0xbf, 0xe4, 0xa3, 0x93, 0xbd,
  0x1c, 0xff, 0xb5, 0xbd, 0x82, 0x45, 0x94, 0x3c, 0xb9, 0x46, 0x0a, 0xbc,
  0x09, 0x81, 0xb2, 0x3d, 0x88, 0x0c, 0xe3, 0xbd, 0x04, 0xdd, 0xf7, 0x3c,
  0x19, 0x6a, 0x83, 0xbf, 0x1c, 0xc1, 0xf2, 0xbe, 0xbd, 0x6a, 0xfd, 0x3d,
  0xb5, 0x44, 0xfd, 0xbc, 0x05, 0x1f, 0xc3, 0x3c, 0x42, 0x6f, 0x91, 0x3e,
  0xe6, 0x41, 0x47, 0xbe, 0x16, 0xc7, 0xd0, 0x3e, 0xa9, 0x2c, 0xa8, 0xbe,
  0x24, 0xf1, 0x79, 0xbe, 0x7a, 0xc1, 0xb9, 0x3e, 0xae, 0x47, 0x53, 0x3d,
  0x32, 0xad, 0x95, 0xbd, 0xaa, 0x7f, 0x27, 0xbe, 0x11, 0xa2, 0xbf, 0xbd,
  0xfb, 0xfb, 0x37, 0xbc, 0xbd, 0xba, 0x21, 0x3e, 0x08, 0xb5, 0x9f, 0xbe,
  0x1a, 0xb8, 0xb6, 0xbe, 0x94, 0xee, 0xe2, 0xbd, 0x26, 0xbd, 0xa2, 0xbe,
  0x82, 0x86, 0xae, 0x3d, 0xa9, 0xcc, 0x6d, 0xbd, 0xcf, 0x46, 0x96, 0x3e,
  0x0a, 0x22, 0xd6, 0xbc, 0xe0, 0x94, 0x2d, 0x3d, 0x9d, 0x11, 0x5b, 0x3e,
  0xb9, 0x09, 0x13, 0x3e, 0xec, 0x72, 0x85, 0x3e, 0xa4, 0x02, 0x9a, 0xbd,
  0xb6, 0x47, 0x53, 0xbe, 0x1c, 0xb1, 0xd3, 0x3e, 0x51, 0x99, 0x03, 0x3e,
  0x1c, 0x84, 0x27, 0xbe, 0xcb, 0x27, 0x34, 0xbe, 0x0b, 0xe5, 0x1f, 0xbe,
  0xab, 0xa4, 0xcf, 0xbc, 0xfd, 0x6c, 0x6a, 0xbd, 0x91, 0x13, 0x2a, 0x3c,
  0x69, 0x8e, 0xc3, 0x3e, 0x05, 0x4e, 0x03, 0xbc, 0xee, 0x7d, 0x30, 0xbc,
  0x3a, 0x13, 0xf8, 0x3d, 0x51, 0xdc, 0x82, 0xbd, 0x23, 0x29, 0x55, 0x3d,
  0x88, 0x3b, 0xc3, 0xbe, 0x48, 0xcb, 0x8f, 0xbe, 0x73, 0x27, 0x58, 0x3e,
  0xcb, 0xcd, 0x55, 0x3d, 0x1e, 0x3f, 0x62, 0xbe, 0x4d, 0x89, 0xfd, 0xbd,
  0x1f, 0x14, 0x2b, 0xbe, 0xf8, 0x4e, 0x0f, 0x3b, 0xd3, 0x18, 0x95, 0xbe,
  0x48, 0x01, 0x09, 0xbe, 0xf1, 0x7b, 0x04, 0x3e, 0xa5, 0x9a, 0x1f, 0xbd,
  0xd5, 0x80, 0x31, 0x3d, 0x67, 0xdd, 0x24, 0x3e, 0x49, 0xd0, 0xc0, 0xbd,
  0xe3, 0x45, 0x19, 0xbd, 0xd4, 0xa4, 0x18, 0xbe, 0x0c, 0x7a, 0x81, 0xbe,
  0xe2, 0x89, 0x6a, 0x3e, 0x7d, 0xbb, 0x9e, 0x3d, 0x79, 0x19, 0x85, 0x3c,
  0xd8, 0x4b, 0x8f, 0xbc, 0xca, 0x23, 0x72, 0xbd, 0x4e, 0xa7, 0x1b, 0x3d,
  0x89, 0xd2, 0x06, 0xbe, 0x8b, 0xa7, 0xc7, 0xbd, 0x64, 0x3d, 0x86, 0x3e,
  0x6f, 0x07, 0x50, 0x3d, 0xaa, 0x08, 0xc5, 0x3d, 0xf6, 0xc1, 0x66, 0x3e,
  0x32, 0xe4, 0xe0, 0xbd, 0x70, 0x78, 0x00, 0x3e, 0xc7, 0xdf, 0x69, 0x3c,
  0x8f, 0x8c, 0x2a, 0xbe, 0xa3, 0x91, 0x97, 0x3e, 0x2c, 0x96, 0xe2, 0x3d,
  0xcd, 0xe1, 0x85, 0xbd, 0xb1, 0xcf, 0x83, 0xbd, 0x44, 0xb1, 0xe7, 0x3c,
  0xe1, 0x11, 0x65, 0x3d, 0xdf, 0xd7, 0x3d, 0x3e, 0xc0, 0x15, 0x4a, 0xbe,
  0x47, 0x87, 0xfe, 0x3d, 0x39, 0xa3, 0xa2, 0xbd, 0xd5, 0x64, 0x29, 0xbe,
  0x3a, 0xe3, 0x37, 0x3e, 0x68, 0x8b, 0x90, 0xbe, 0x82, 0x30, 0x5c, 0x3d,
  0xba, 0xdf, 0xd9, 0xbd, 0xeb, 0x04, 0xe5, 0xbd, 0xb6, 0x13, 0x86, 0x3e,
  0xa7, 0x01, 0x4b, 0x3d, 0xaa, 0x5e, 0x6c, 0xbe, 0xc0, 0xa7, 0x48, 0xbd,
  0x1f, 0x19, 0x00, 0x3d, 0xf5, 0x23, 0xa0, 0xbc, 0x63, 0x67, 0xdc, 0x3c,
  0xaf, 0x6d, 0xa5, 0xbc, 0x12, 0x36, 0x67, 0x3e, 0xf2, 0xe3, 0xf8, 0xbd,
  0x95, 0x86, 0x85, 0xbc, 0xbb, 0x80, 0x8b, 0x3e, 0x75, 0xd6, 0x39, 0xbf,
  0xf8, 0x5b, 0x3e, 0x3e, 0x57, 0xf8, 0x9e, 0xbd, 0x94, 0xb9, 0xeb, 0xbd,
  0x92, 0x86, 0x8b, 0x3d, 0xc8, 0xbc, 0x39, 0x3d, 0x3d, 0xc6, 0xd0, 0xbd,
  0xdb, 0xb8, 0xd4, 0xbc, 0x9f, 0x82, 0x00, 0xbe, 0x46, 0x1d, 0xc4, 0xbb,
  0x4f, 0x80, 0x2c, 0x3e, 0x13, 0xfe, 0xae, 0x3e, 0xed, 0x8f, 0xaf, 0xbc,
  0x89, 0xe9, 0x88, 0x3e, 0xe6, 0x18, 0x7b, 0xbe, 0x98, 0x96, 0x5c, 0xbe,
  0xbd, 0xe3, 0xc9, 0xbd, 0xe1, 0x0f, 0x44, 0xbc, 0x13, 0x46, 0x1a, 0xbe,
  0xaf, 0x94, 0xc6, 0xbd, 0x9b, 0xf7, 0x9c, 0xbd, 0x25, 0x7c, 0x10, 0xbd,
  0x2b, 0x05, 0xf4, 0x3e, 0x7c, 0xfc, 0x19, 0xbe, 0xe8, 0x4b, 0xb1, 0xbe,
  0xf7, 0x02, 0x8e, 0x3d, 0x7e, 0x19, 0xa6, 0xbd, 0xcf, 0xc9, 0x68, 0x3e,
  0x8e, 0x99, 0x2b, 0x3e, 0xa1, 0x48, 0xad, 0x3e, 0x92, 0x4a, 0x98, 0x3e,
  0x7d, 0x95, 0x45, 0xbe, 0xf8, 0x4e, 0x0a, 0x3d, 0xd3, 0x98, 0x55, 0xbe,
  0xcb, 0xb2, 0x60, 0xbd, 0x53, 0x6a, 0x8a, 0x3e, 0x27, 0x56, 0x12, 0x3e,
  0x08, 0x08, 0x82, 0xbd, 0xfa, 0x6c, 0x9d, 0x3e, 0x69, 0xf6, 0x2d, 0xbe,
  0xbf, 0xbc, 0x97, 0xbe, 0x51, 0xb5, 0x87, 0xbd, 0x4d, 0xd9, 0xe7, 0xbc,
  0xb8, 0xb1, 0xaa, 0x3e, 0x99, 0x08, 0x4e, 0x3e, 0x87, 0x34, 0xc1, 0x3e,
  0x6d, 0xa5, 0x20, 0x3e, 0xa3, 0xe3, 0x58, 0xbe, 0x15, 0x08, 0x83, 0xbe,
  0xf5, 0x13, 0x02, 0xbe, 0x79, 0xd2, 0x14, 0xbe, 0xee, 0xfb, 0xf4, 0x3d,
  0x8d, 0x13, 0x24, 0xbb, 0xf6, 0x53, 0x60, 0xbe, 0xd8, 0xef, 0x28, 0x3e,
  0xaf, 0xea, 0xc7, 0xbe, 0xcb, 0x62, 0x24, 0x3d, 0xa0, 0x25, 0x15, 0xbd,
  0x2e, 0x0f, 0x29, 0xbd, 0x34, 0x65, 0x57, 0x3e, 0x3d, 0x47, 0x8a, 0x3e,
  0xd1, 0x95, 0x87, 0x3e, 0x1e, 0x03, 0xd2, 0x3d, 0x4e, 0xd0, 0x5f, 0xbe,
  0xa6, 0xbb, 0x08, 0x3d, 0x1d, 0x33, 0x0f, 0xbe, 0xcd, 0x85, 0xc9, 0xbd,
  0x1c, 0xe7, 0x2b, 0xbd, 0x43, 0x63, 0x33, 0x3d, 0xd3, 0x32, 0x2c, 0xbe,
  0x72, 0x33, 0x84, 0x3e, 0x85, 0x12, 0xf5, 0xbe, 0x51, 0x43, 0x78, 0xbe,
  0xf7, 0xa5, 0xd7, 0xbd, 0x8c, 0x10, 0x1b, 0x3d, 0x08, 0x18, 0x7a, 0x3e,
  0xdd, 0x7c, 0x1e, 0x3d, 0x13, 0xb9, 0x87, 0x3e, 0x8f, 0x13, 0x6f, 0x3e,
  0xd7, 0x26, 0x5c, 0xbe, 0x24, 0x62, 0x80, 0x3e, 0xcb, 0x83, 0x40, 0xbd,
  0x45, 0x7c, 0x4b, 0xbd, 0xb0, 0x3c, 0x5d, 0xbc, 0x0a, 0x34, 0x3c, 0xbd,
  0x0d, 0x10, 0x0e, 0xbe, 0xbb, 0x4a, 0x87, 0x3e, 0x5a, 0xc5, 0xa4, 0xbe,
  0x65, 0xe0, 0x84, 0xbd, 0x0f, 0x61, 0xd9, 0xbd, 0x6b, 0xed, 0x04, 0x3d,
  0xd2, 0xe8, 0x91, 0x3e, 0x19, 0x0b, 0x44, 0xbe, 0xa6, 0xb5, 0xbf, 0x3e,
  0xd6, 0xff, 0xce, 0x3e, 0x17, 0x9b, 0xf5, 0xbd, 0xd7, 0x8a, 0xf4, 0x3d,
  0xee, 0x94, 0xf4, 0xbc, 0x56, 0x4c, 0xf3, 0xbd, 0xa2, 0x02, 0x86, 0x3d,
  0x93, 0xc8, 0xf3, 0x3e, 0xdd, 0x93, 0x19, 0xbc, 0xce, 0xe9, 0x84, 0x3e,
  0x4b, 0xbb, 0x2a, 0xbe, 0x2b, 0xf2, 0xa7, 0xbc, 0x1e, 0xe8, 0xb4, 0x3c,
  0x0a, 0x6f, 0x71, 0x3d, 0x50, 0x0c, 0x3f, 0x3e, 0xd8, 0x92, 0x6b, 0x3e,
  0xfc, 0x9a, 0x90, 0x3d, 0xf7, 0x6a, 0x97, 0x3e, 0xdb, 0xc3, 0xf7, 0xbd,
  0xfc, 0x68, 0xdb, 0x3d, 0x06, 0x78, 0x40, 0xbe, 0x69, 0x3d, 0x8f, 0xbd,
  0x73, 0x06, 0x3e, 0xbe, 0x6b, 0x01, 0x69, 0xbe, 0x9a, 0x32, 0x0d, 0xbe,
  0xe4, 0xe7, 0x51, 0x3e, 0x1f, 0x1a, 0xcb, 0xbe, 0x3e, 0xd7, 0x16, 0xbe,
  0x65, 0x89, 0x92, 0xbd, 0x61, 0xf3, 0x6b, 0xbe, 0x80, 0xcd, 0x77, 0xbe,
  0x1e, 0x36, 0xbc, 0x3e, 0x78, 0x2d, 0x29, 0xbf, 0xc8, 0x31, 0x24, 0x3e,
  0xdd, 0x1e, 0xaa, 0x3e, 0xc2, 0xbe, 0x1b, 0x3e, 0xcb, 0x4a, 0xcb, 0xbe,
  0x3f, 0x70, 0x80, 0xbd, 0x9b, 0x35, 0x48, 0xbd, 0xce, 0xeb, 0xfd, 0x3d,
  0x38, 0x98, 0xf7, 0x3d, 0x61, 0x95, 0x77, 0xbe, 0x8a, 0x0d, 0xe9, 0xbe,
  0x00, 0x7f, 0x7a, 0x3e, 0x53, 0x9d, 0xdc, 0xbe, 0xba, 0x46, 0x3a, 0x3e,
  0xb4, 0xbe, 0x38, 0xbe, 0x7f, 0x9b, 0xd1, 0x3e, 0xee, 0x53, 0x67, 0xbe,
  0xca, 0xe3, 0xe9, 0x3c, 0xcf, 0x26, 0x87, 0x3e, 0xdc, 0xd4, 0xaf, 0x3d,
  0xe1, 0xa7, 0x5c, 0x3e, 0x27, 0x40, 0x20, 0xbd, 0x3e, 0x19, 0xc3, 0xbe,
  0xc0, 0x1c, 0x09, 0x3e, 0xa9, 0x98, 0x03, 0x3d, 0x9c, 0x29, 0x62, 0xbe,
  0x14, 0xc0, 0xcd, 0xbe, 0x46, 0x6c, 0x84, 0xbd, 0x2d, 0xea, 0x2a, 0xbe,
  0x89, 0xfa, 0x3f, 0xbc, 0xc6, 0x83, 0x74, 0xbd, 0x27, 0x85, 0xa4, 0x3e,
  0x16, 0xbd, 0x41, 0xbc, 0x77, 0xf5, 0x56, 0xbe, 0xb8, 0x2e, 0x7e, 0x3e,
  0x1f, 0x9f, 0x91, 0x3e, 0xb9, 0xc5, 0x25, 0x3d, 0x70, 0x95, 0x77, 0xbd,
  0xae, 0x5f, 0x2c, 0xbe, 0x30, 0xb5, 0x19, 0x3e, 0xfb, 0xc1, 0x6c, 0xbd,
  0x2d, 0x52, 0x12, 0x3e, 0x75, 0x29, 0xb7, 0xbd, 0x4d, 0x1a, 0x2a, 0xbc,
  0xe9, 0x0c, 0x21, 0x3d, 0x58, 0xc0, 0xd2, 0x3d, 0x07, 0xe7, 0xe5, 0xbd,
  0x12, 0x1f, 0x75, 0xbd, 0x98, 0x7f, 0xb8, 0xbe, 0x0c, 0x09, 0x1e, 0xbf,
  0x82, 0xe9, 0x4a, 0xbe, 0x8b, 0x45, 0x23, 0xbe, 0xf1, 0xe9, 0x25, 0x3e,
  0x64, 0x8e, 0xda, 0xbd, 0x78, 0x32, 0x3d, 0xbe, 0x32, 0x7e, 0xeb, 0x3e,
  0x87, 0x73, 0x0d, 0xbe, 0x03, 0x9b, 0x37, 0x3e, 0x05, 0x67, 0xac, 0x3c,
  0x8e, 0x41, 0xb9, 0x3b, 0xe0, 0x2c, 0x11, 0xbc, 0x60, 0x13, 0xae, 0xbb,
  0xcf, 0x11, 0xf8, 0xbc, 0x3b, 0x09, 0xad, 0x3e, 0x21, 0xbe, 0x43, 0xbe,
  0xc6, 0x6c, 0x53, 0xbe, 0xa8, 0x33, 0x0d, 0xbd, 0x46, 0x1e, 0xff, 0x3d,
  0x02, 0xd6, 0xda, 0xbc, 0xae, 0x07, 0x29, 0xbe, 0x90, 0x5c, 0x85, 0x3a,
  0x10, 0x2f, 0x57, 0x3e, 0xb1, 0x7e, 0xbc, 0x3d, 0x21, 0x80, 0xd3, 0xbc,
  0xff, 0xb8, 0x3f, 0xbd, 0xc7, 0x9b, 0x0c, 0x3d, 0xbb, 0x8b, 0x47, 0xba,
  0xd0, 0xfd, 0xba, 0x3d, 0xda, 0x6c, 0xaf, 0xbd, 0xd7, 0xc3, 0xbb, 0x3e,
  0xb0, 0x7b, 0x55, 0xbe, 0xba, 0x40, 0x91, 0xbe, 0x6f, 0xdd, 0xfe, 0x3d,
  0xca, 0x71, 0x0a, 0x3e, 0x4e, 0x9e, 0xa1, 0x3e, 0xbf, 0x9c, 0x8d, 0xbd,
  0xa5, 0x38, 0xa1, 0xbe, 0x48, 0xcf, 0xac, 0x3e, 0x66, 0xc3, 0x66, 0xbd,
  0x04, 0xdb, 0xd2, 0xbd, 0xfb, 0x97, 0xf1, 0xbd, 0x79, 0xbd, 0xad, 0xbd,
  0xac, 0xeb, 0x1c, 0xbc, 0xe8, 0x0e, 0x81, 0xbd, 0x39, 0x9f, 0x57, 0xbd,
  0xe9, 0x18, 0x8e, 0x3e, 0x99, 0x32, 0x7a, 0xbe, 0x82, 0x8d, 0xd1, 0x3d,
  0x0a, 0x07, 0x8d, 0x3e, 0x17, 0xaf, 0x9a, 0x3c, 0x37, 0xdc, 0x04, 0x3d,
  0x5d, 0xaf, 0x81, 0x3d, 0x10, 0x6a, 0xa5, 0xbc, 0x43, 0xba, 0x9b, 0x3d,
  0x01, 0x04, 0x4e, 0x3d, 0x6d, 0xb8, 0x37, 0x3e, 0xab, 0xf1, 0x08, 0xbd,
  0x80, 0xa6, 0x27, 0xbd, 0xfc, 0xca, 0xbb, 0x3c, 0xd5, 0xbd, 0x35, 0x3e,
  0x53, 0x90, 0x18, 0xbd, 0xad, 0x37, 0xdb, 0xbc, 0x76, 0x29, 0xa8, 0xbd,
  0x4a, 0x63, 0xb4, 0xbe, 0x52, 0x1a, 0xa9, 0x3c, 0xc0, 0x7c, 0x08, 0xbe,
  0x68, 0xd6, 0x30, 0xbe, 0xdc, 0xe6, 0x83, 0xbe, 0x27, 0x0f, 0x33, 0x3e,
  0x69, 0xe6, 0xef, 0xbe, 0xd3, 0xe2, 0x9e, 0x3e, 0xb2, 0x35, 0xab, 0xbd,
  0xc8, 0x5b, 0x3c, 0x3e, 0xb4, 0x23, 0xd9, 0x3d, 0x47, 0x15, 0x60, 0xbd,
  0x37, 0xf7, 0x27, 0xbe, 0x00, 0x89, 0x95, 0xbd, 0x5f, 0xb7, 0x3e, 0xbe,
  0x1d, 0x4f, 0xb0, 0xbd, 0x57, 0x1c, 0x79, 0xbd, 0x92, 0xdd, 0x3d, 0xbd,
  0x66, 0x5f, 0xef, 0xbd, 0x95, 0x3d, 0xc5, 0xbd, 0xdf, 0xef, 0x9e, 0xbe,
  0x6e, 0x41, 0x8b, 0x3d, 0x3e, 0x86, 0x36, 0xbe, 0xfa, 0xc2, 0x5a, 0x3e,
  0x8e, 0xb6, 0xbc, 0xbc, 0x78, 0xc8, 0x58, 0x3c, 0xb2, 0xf7, 0xe1, 0x3d,
  0x42, 0x44, 0x4b, 0xbe, 0x01, 0xc4, 0x8f, 0xbd, 0x7b, 0x8c, 0xe2, 0xbc,
  0x6a, 0x65, 0x1e, 0xbd, 0xbb, 0x15, 0xf3, 0x3a, 0xdd, 0x75, 0x49, 0xbd,
  0x9f, 0x9e, 0x38, 0x3e, 0xec, 0x1a, 0x3c, 0x3d, 0x4f, 0x06, 0xad, 0x3c,
  0x92, 0xc5, 0x5a, 0xbe, 0x01, 0x1f, 0x96, 0x3d, 0x93, 0xa2, 0x4d, 0xbd,
  0xcb, 0x48, 0x0e, 0x3e, 0xa9, 0x85, 0xc5, 0xbd, 0xa4, 0x3a, 0x05, 0x3e,
  0x33, 0xf8, 0x4e, 0x3e, 0x1b, 0x73, 0xda, 0xbc, 0x67, 0x07, 0x59, 0x3d,
  0x77, 0xfe, 0x57, 0xbe, 0x7f, 0xb7, 0xce, 0x39, 0x2c, 0x62, 0x54, 0x3e,
  0x32, 0x09, 0x66, 0xbe, 0x55, 0xf8, 0xdd, 0xbd, 0xf2, 0xdf, 0xdb, 0x3d,
  0xf1, 0xd4, 0xb9, 0xbd, 0xc5, 0xe0, 0x29, 0xbe, 0x62, 0xdf, 0xba, 0xbe,
  0xd3, 0x0e, 0x33, 0xbe, 0x70, 0x68, 0x92, 0xbe, 0x08, 0xea, 0x8e, 0xbe,
  0x0d, 0x92, 0x9a, 0xbd, 0x9d, 0xe6, 0x74, 0xbe, 0xb1, 0x4d, 0x9f, 0xbd,
  0xb8, 0x13, 0x86, 0xbd, 0xfa, 0xa9, 0x62, 0xbd, 0x7b, 0xff, 0x4f, 0x3d,
  0xa7, 0x7c, 0x65, 0xbd, 0x40, 0xb1, 0xa4, 0xbe, 0xae, 0x84, 0x24, 0xbe,
  0x07, 0xc0, 0x9d, 0xbb, 0x64, 0xeb, 0x0c, 0xbe, 0xc7, 0xd6, 0x88, 0xbe,
  0xce, 0xac, 0x11, 0xbe, 0x93, 0x69, 0xde, 0xbd, 0xa2, 0x5e, 0x2d, 0x3d,
  0x52, 0xbb, 0x56, 0x3d, 0x86, 0x14, 0xac, 0xbc, 0x0c, 0x02, 0x4c, 0xbe,
  0x2f, 0x2b, 0x64, 0xbe, 0x86, 0x3d, 0xe6, 0xbe, 0x27, 0x59, 0x1c, 0xbe,
  0x25, 0x6e, 0x20, 0xbe, 0xd8, 0x06, 0x2a, 0x3c, 0x6f, 0xcc, 0x76, 0xbe,
  0x2e, 0xa2, 0xe7, 0xbb, 0xf9, 0x90, 0xf9, 0xbd, 0x3b, 0xc4, 0x9e, 0xbe,
  0x75, 0xff, 0xa1, 0xbe, 0x69, 0x94, 0xce, 0xbe, 0x01, 0x72, 0x71, 0xbe,
  0xf7, 0xfa, 0x56, 0xbd, 0x57, 0x66, 0x28, 0x3d, 0x83, 0x6e, 0x55, 0xbd,
  0x21, 0xa3, 0x79, 0xbe, 0xef, 0xe8, 0x8b, 0xbe, 0x5a, 0x1a, 0xb1, 0xbd,
  0x9e, 0x89, 0x08, 0x3e, 0x0e, 0x58, 0xe2, 0xbd, 0x2b, 0x9e, 0x00, 0xbd,
  0x8c, 0x84, 0xbc, 0xbe, 0x05, 0x9e, 0x3d, 0xbe, 0x30, 0x68, 0x5d, 0xbd,
  0x37, 0x99, 0x0b, 0xbe, 0xd0, 0x65, 0x9b, 0xbe, 0xc1, 0x1c, 0xd2, 0xbe,
  0xd3, 0xac, 0x44, 0xbe, 0x57, 0x9a, 0xb8, 0xbe, 0x27, 0xdc, 0xa5, 0xbe,
  0x34, 0x02, 0xbb, 0xbb, 0xc7, 0x11, 0x2a, 0xbe, 0xe3, 0x97, 0x90, 0xbe,
  0xfd, 0xd0, 0x06, 0xbf, 0x7d, 0x9a, 0x09, 0xbe, 0x7f, 0xe0, 0xcd, 0x3e,
  0x72, 0x50, 0x86, 0xbe, 0xf4, 0x1e, 0x1e, 0x3d, 0x5b, 0x1b, 0xcd, 0x3d,
  0xc4, 0xba, 0x88, 0xbd, 0x08, 0x69, 0xae, 0xbe, 0x8b, 0x56, 0xd1, 0xbe,
  0xdc, 0x31, 0xc9, 0xbe, 0xea, 0xdc, 0x5b, 0x3b, 0x50, 0x99, 0x30, 0xbd,
  0x0d, 0x3a, 0x60, 0x39, 0x1a, 0x99, 0xf6, 0xbd, 0x44, 0xaf, 0x83, 0x3e,
  0xef, 0x55, 0x47, 0xbe, 0x70, 0x68, 0x18, 0xbe, 0x07, 0x08, 0x3b, 0xbe,
  0xc5, 0x97, 0x05, 0x3f, 0xe6, 0x0b, 0xd4, 0xbb, 0xac, 0x9b, 0x06, 0xbc,
  0x6c, 0x53, 0x3b, 0x3d, 0xa7, 0x84, 0x52, 0x3e, 0xd4, 0xf1, 0xdd, 0x3c,
  0x12, 0x29, 0xa9, 0xbe, 0x4d, 0xbe, 0x5d, 0xbe, 0x9d, 0x4c, 0xc7, 0x3e,
  0xf5, 0x19, 0x49, 0x3e, 0x9c, 0xef, 0x61, 0x3c, 0x3f, 0x31, 0x52, 0xbe,
  0x4d, 0x1b, 0x36, 0x3c, 0x4a, 0xc1, 0xb5, 0xbd, 0x9b, 0x64, 0x94, 0xbd,
  0x26, 0x9c, 0x61, 0xbe, 0xd2, 0x08, 0xdd, 0x3e, 0x87, 0x1b, 0x01, 0x3e,
  0x78, 0x28, 0xe1, 0xbd, 0x41, 0x3f, 0x0e, 0x3e, 0x79, 0x15, 0x3d, 0xbd,
  0x39, 0x3b, 0x28, 0xbe, 0x3c, 0x65, 0xa1, 0xbe, 0xda, 0xef, 0x96, 0xbe,
  0x12, 0x36, 0x14, 0x3f, 0x2c, 0xc9, 0x39, 0x3e, 0x37, 0x75, 0x1d, 0xbe,
  0x5a, 0x1c, 0x46, 0xbd, 0xcf, 0xd4, 0x8f, 0xbe, 0x47, 0x32, 0x0d, 0xbd,
  0x45, 0x6d, 0x02, 0xbe, 0x2d, 0x6c, 0x0d, 0xbe, 0xc4, 0xe9, 0xa0, 0x3e,
  0x93, 0xee, 0x89, 0xbe, 0xd7, 0x44, 0xd9, 0x3c, 0x1e, 0x00, 0x0a, 0x3d,
  0xc2, 0xa7, 0x91, 0xbd, 0x41, 0xd4, 0xaf, 0xbd, 0x52, 0xbb, 0x18, 0xbe,
  0xe9, 0x90, 0xab, 0xbe, 0x18, 0xc2, 0x38, 0x3e, 0x42, 0x09, 0xc4, 0x3c,
  0x68, 0x0b, 0xa1, 0x3d, 0x54, 0x38, 0x33, 0xbd, 0x67, 0x0d, 0x0b, 0xbe,
  0xb5, 0x52, 0x4b, 0xbd, 0x85, 0x02, 0x48, 0x3c, 0xa9, 0x73, 0x74, 0xbe,
  0xf1, 0x6c, 0x8e, 0x3e, 0x42, 0xac, 0x99, 0xbe, 0x89, 0xeb, 0xca, 0xbd,
  0x5f, 0x5a, 0x18, 0x3e, 0x09, 0xe2, 0x11, 0xbe, 0x46, 0x8c, 0x26, 0xbc,
  0x17, 0x6e, 0x81, 0xbe, 0x94, 0x22, 0xa6, 0xbe, 0x78, 0x1e, 0xd7, 0x3e,
  0x70, 0x09, 0x78, 0x3e, 0xa5, 0x09, 0x58, 0xbe, 0xe8, 0x3d, 0x54, 0xbe,
  0xc7, 0x1e, 0xd1, 0x3c, 0xb2, 0xa6, 0x8a, 0xbd, 0xa4, 0x89, 0x93, 0x3d,
  0xed, 0x51, 0xbb, 0xbd, 0xb4, 0xe5, 0x2c, 0x3e, 0xbb, 0xa8, 0x4d, 0xbd,
  0x0b, 0xbd, 0xc3, 0xbd, 0x1a, 0xd1, 0x68, 0x3e, 0xc2, 0x0b, 0x9a, 0xbe,
  0xad, 0x9d, 0x1a, 0x3e, 0xec, 0xa3, 0x1a, 0x3d, 0xd3, 0x6c, 0xc2, 0x3d,
  0x6b, 0xb1, 0x0e, 0x3f, 0x9c, 0xe1, 0x98, 0x3d, 0x92, 0xa3, 0xa1, 0xbe,
  0x57, 0x83, 0xae, 0xbd, 0x40, 0x0b, 0xb3, 0xbd, 0x22, 0xc2, 0x85, 0x3d,
  0x96, 0x8b, 0xb4, 0xbd, 0xb8, 0x88, 0x98, 0xbd, 0x54, 0x27, 0xea, 0x3e,
  0x45, 0x3d, 0xd9, 0xbd, 0x11, 0xd0, 0x35, 0xbe, 0xb5, 0x8d, 0x08, 0x3d,
  0x69, 0xe0, 0x09, 0xbf, 0x50, 0xf8, 0xa1, 0x3c, 0x3c, 0xbc, 0x50, 0xbe,
  0x71, 0x8f, 0x72, 0xbd, 0x23, 0x28, 0x54, 0x3e, 0x45, 0x6a, 0xef, 0xbb,
  0x26, 0x31, 0x31, 0xbe, 0x2e, 0x44, 0x20, 0xbd, 0x2b, 0x77, 0x30, 0xbd,
  0x60, 0x04, 0x2a, 0x3b, 0xbc, 0xea, 0x9f, 0xbd, 0x18, 0x84, 0xa0, 0x3e,
  0x15, 0x65, 0xe5, 0xbe, 0xec, 0x07, 0x64, 0x3d, 0xb3, 0x06, 0x66, 0xbd,
  0xee, 0x0d, 0x0d, 0x3e, 0xee, 0x1f, 0x06, 0x3c, 0xe8, 0x97, 0xc0, 0x3d,
  0x13, 0x38, 0x5b, 0xbd, 0x96, 0xc7, 0x64, 0x3d, 0x4e, 0x68, 0x65, 0xbe,
  0x9a, 0x42, 0x58, 0x3d, 0x44, 0xd1, 0x9c, 0xbe, 0xbc, 0x4e, 0x44, 0xbe,
  0x59, 0x24, 0x35, 0xbd, 0x23, 0x9f, 0x56, 0xbe, 0x50, 0x61, 0x38, 0x3d,
  0xdc, 0xc8, 0x88, 0xbd, 0x4d, 0x67, 0x05, 0xbe, 0x43, 0xc9, 0x91, 0x3d,
  0x56, 0x19, 0x01, 0xbe, 0x3a, 0x64, 0xab, 0xbd, 0x38, 0x1b, 0xeb, 0x3d,
  0xb2, 0x3e, 0xe1, 0x3d, 0xe0, 0xa6, 0x38, 0x3d, 0xa9, 0xd4, 0x64, 0xbe,
  0xa9, 0x95, 0x74, 0x3e, 0x03, 0x64, 0x0d, 0xbe, 0x81, 0xf5, 0x06, 0xbe,
  0x54, 0x5f, 0xda, 0xbe, 0xf0, 0x2a, 0x6a, 0xbe, 0x97, 0xb5, 0x42, 0xbe,
  0x2e, 0x0c, 0x77, 0x3d, 0xbf, 0x0f, 0x86, 0xbd, 0x60, 0x0c, 0x35, 0xbe,
  0x25, 0xcd, 0x09, 0xbe, 0x33, 0x18, 0x80, 0xbd, 0x52, 0xd3, 0x70, 0xbe,
  0x43, 0x02, 0x36, 0x3e, 0x00, 0x10, 0x56, 0xbe, 0x29, 0x58, 0x6f, 0xbd,
  0xc3, 0x97, 0x9d, 0xbe, 0xeb, 0x59, 0x21, 0xbe, 0xeb, 0x80, 0x4b, 0x3c,
  0x20, 0xb3, 0x3f, 0xbe, 0x45, 0x98, 0xde, 0xbe, 0x60, 0x47, 0xc9, 0xbe,
  0xd8, 0x67, 0x85, 0xbe, 0x97, 0xa0, 0x1b, 0x3e, 0xa0, 0x02, 0x0e, 0xbc,
  0xe0, 0x7e, 0x17, 0xbe, 0x69, 0x2e, 0x05, 0x3e, 0xfb, 0x5e, 0x62, 0xbe,
  0xfb, 0xcc, 0xb2, 0xbe, 0x06, 0x37, 0xad, 0x3d, 0xb1, 0xa0, 0x9f, 0xbc,
  0x3d, 0x03, 0x17, 0xbd, 0xfa, 0x9b, 0x1b, 0x3e, 0xfa, 0x43, 0x91, 0xbe,
  0x7d, 0x13, 0x99, 0xbc, 0x6f, 0x9b, 0x17, 0xbe, 0xe7, 0xf2, 0x99, 0xbe,
  0x06, 0x51, 0x9d, 0xbe, 0x22, 0xbc, 0x88, 0xbe, 0x0b, 0x54, 0x87, 0x3b,
  0xa7, 0x4b, 0x80, 0xbe, 0xf9, 0x23, 0x76, 0xbe, 0xed, 0x83, 0x92, 0x3d,
  0xd5, 0x6f, 0xc2, 0xbe, 0xf8, 0x1a, 0xaa, 0xbd, 0x4c, 0xcd, 0xe7, 0xbd,
  0x6d, 0xa1, 0xce, 0xbe, 0xf2, 0xb9, 0x32, 0xbd, 0x07, 0xde, 0x60, 0x3e,
  0x87, 0x31, 0x67, 0xbe, 0xfb, 0x3f, 0x3a, 0x3d, 0x83, 0x10, 0xf0, 0xbd,
  0x07, 0x83, 0x97, 0xbc, 0x63, 0x8f, 0xe8, 0xbb, 0xc7, 0x15, 0x7e, 0xbe,
  0xec, 0x6e, 0xcd, 0x3d, 0xa9, 0x9d, 0x45, 0xbe, 0x11, 0x20, 0xe4, 0xbe,
  0x97, 0xae, 0xad, 0xbe, 0xb0, 0x74, 0xa7, 0xbe, 0xac, 0xad, 0xa1, 0xbd,
  0x9a, 0xfc, 0xae, 0x3c, 0xf6, 0x66, 0xda, 0xbe, 0xc8, 0xe1, 0xf5, 0xbd,
  0x50, 0x33, 0x2e, 0x3e, 0xc0, 0x2b, 0x26, 0xbd, 0xea, 0x14, 0x06, 0x3e,
  0x8b, 0x96, 0xce, 0xbe, 0x6f, 0x9d, 0xc9, 0x3d, 0xd5, 0x3a, 0x96, 0x3d,
  0x9c, 0x2d, 0x07, 0xbe, 0x2e, 0xdf, 0x77, 0x3d, 0xda, 0x49, 0x1e, 0x3e,
  0x8f, 0xe2, 0x91, 0xbe, 0x19, 0xb3, 0x0e, 0xbe, 0x32, 0x83, 0x67, 0x3e,
  0x8a, 0x2d, 0xb4, 0x3d, 0xc2, 0xdf, 0x00, 0xbf, 0x7c, 0x41, 0xdc, 0xbd,
  0xfe, 0x0f, 0x29, 0xbe, 0x98, 0x16, 0x15, 0x3e, 0xdc, 0x79, 0xbf, 0x3d,
  0xf7, 0x4e, 0x1b, 0x3e, 0x51, 0xe6, 0xca, 0xbd, 0xe4, 0x7a, 0x82, 0x3e,
  0x10, 0xf8, 0xa0, 0xbd, 0x7d, 0x79, 0xa2, 0xbd, 0xee, 0x5d, 0x1b, 0xbe,
  0x46, 0xfe, 0xff, 0xff, 0x10, 0x00, 0x00, 0x00, 0x05, 0x00, 0x00, 0x00,
  0x14, 0x00, 0x00, 0x00, 0x2c, 0x00, 0x00, 0x00, 0x02, 0x00, 0x00, 0x00,
  0x10, 0x00, 0x00, 0x00, 0x70, 0x00, 0x00, 0x00, 0x17, 0x00, 0x00, 0x00,
  0x73, 0x65, 0x71, 0x75, 0x65, 0x6e, 0x74, 0x69, 0x61, 0x6c, 0x2f, 0x64,
  0x65, 0x6e, 0x73, 0x65, 0x2f, 0x4d, 0x61, 0x74, 0x4d, 0x75, 0x6c, 0x00,
  0x34, 0xfe, 0xff, 0xff, 0x2a, 0xff, 0xff, 0xff, 0x04, 0x00, 0x00, 0x00,
  0x08, 0x00, 0x00, 0x00, 0xff, 0xff, 0xff, 0xff, 0x70, 0x00, 0x00, 0x00,
  0x00, 0x00, 0x0e, 0x00, 0x18, 0x00, 0x08, 0x00, 0x07, 0x00, 0x0c, 0x00,
  0x10, 0x00, 0x14, 0x00, 0x0e, 0x00, 0x00, 0x00, 0x00, 0x00, 0x00, 0x02,
  0x10, 0x00, 0x00, 0x00, 0x04, 0x00, 0x00, 0x00, 0x10, 0x00, 0x00, 0x00,
  0x2c, 0x00, 0x00, 0x00, 0x01, 0x00, 0x00, 0x00, 0x02, 0x00, 0x00, 0x00,
  0x18, 0x00, 0x00, 0x00, 0x73, 0x65, 0x71, 0x75, 0x65, 0x6e, 0x74, 0x69,
  0x61, 0x6c, 0x2f, 0x66, 0x6c, 0x61, 0x74, 0x74, 0x65, 0x6e, 0x2f, 0x43,
  0x6f, 0x6e, 0x73, 0x74, 0x00, 0x00, 0x00, 0x00, 0x9c, 0xfe, 0xff, 0xff,
  0x92, 0xff, 0xff, 0xff, 0x04, 0x00, 0x00, 0x00, 0x10, 0x00, 0x00, 0x00,
  0x89, 0xa4, 0x2f, 0xbf, 0x7a, 0x3a, 0x97, 0xbf, 0xdd, 0x1c, 0xd3, 0xbf,
  0xc5, 0x1a, 0xd5, 0x3f, 0x0a, 0xff, 0xff, 0xff, 0x10, 0x00, 0x00, 0x00,
  0x03, 0x00, 0x00, 0x00, 0x10, 0x00, 0x00, 0x00, 0x3c, 0x00, 0x00, 0x00,
  0x01, 0x00, 0x00, 0x00, 0x04, 0x00, 0x00, 0x00, 0x29, 0x00, 0x00, 0x00,
  0x73, 0x65, 0x71, 0x75, 0x65, 0x6e, 0x74, 0x69, 0x61, 0x6c, 0x2f, 0x64,
  0x65, 0x6e, 0x73, 0x65, 0x5f, 0x31, 0x2f, 0x42, 0x69, 0x61, 0x73, 0x41,
  0x64, 0x64, 0x2f, 0x52, 0x65, 0x61, 0x64, 0x56, 0x61, 0x72, 0x69, 0x61,
  0x62, 0x6c, 0x65, 0x4f, 0x70, 0x00, 0x00, 0x00, 0x60, 0xff, 0xff, 0xff,
  0x00, 0x00, 0x06, 0x00, 0x08, 0x00, 0x04, 0x00, 0x06, 0x00, 0x00, 0x00,
  0x04, 0x00, 0x00, 0x00, 0x40, 0x00, 0x00, 0x00, 0xcd, 0x26, 0x2a, 0xbf,
  0x62, 0x3a, 0x4d, 0x3c, 0xcf, 0xdf, 0x92, 0xbe, 0x57, 0x4c, 0x57, 0x3f,
  0xd1, 0xdd, 0xc6, 0x3e, 0x43, 0x6e, 0x07, 0x3f, 0x41, 0xe7, 0xc5, 0xbe,
  0x67, 0x3b, 0x2a, 0x3f, 0xd2, 0x6c, 0x61, 0xbe, 0x9a, 0x2f, 0x68, 0x3f,
  0xab, 0x66, 0x02, 0x3f, 0x2a, 0xb8, 0xf0, 0xbd, 0x5a, 0x42, 0x93, 0x3f,
  0xdb, 0x69, 0xa9, 0xbe, 0xe8, 0xc3, 0x38, 0x3f, 0x97, 0x85, 0xcf, 0xbe,
  0xae, 0xff, 0xff, 0xff, 0x10, 0x00, 0x00, 0x00, 0x02, 0x00, 0x00, 0x00,
  0x10, 0x00, 0x00, 0x00, 0x3c, 0x00, 0x00, 0x00, 0x01, 0x00, 0x00, 0x00,
  0x10, 0x00, 0x00, 0x00, 0x27, 0x00, 0x00, 0x00, 0x73, 0x65, 0x71, 0x75,
  0x65, 0x6e, 0x74, 0x69, 0x61, 0x6c, 0x2f, 0x64, 0x65, 0x6e, 0x73, 0x65,
  0x2f, 0x42, 0x69, 0x61, 0x73, 0x41, 0x64, 0x64, 0x2f, 0x52, 0x65, 0x61,
  0x64, 0x56, 0x61, 0x72, 0x69, 0x61, 0x62, 0x6c, 0x65, 0x4f, 0x70, 0x00,
  0x04, 0x00, 0x06, 0x00, 0x04, 0x00, 0x00, 0x00, 0x00, 0x00, 0x0e, 0x00,
  0x14, 0x00, 0x04, 0x00, 0x00, 0x00, 0x08, 0x00, 0x0c, 0x00, 0x10, 0x00,
  0x0e, 0x00, 0x00, 0x00, 0x10, 0x00, 0x00, 0x00, 0x01, 0x00, 0x00, 0x00,
  0x1c, 0x00, 0x00, 0x00, 0x2c, 0x00, 0x00, 0x00, 0x04, 0x00, 0x00, 0x00,
  0x01, 0x00, 0x00, 0x00, 0x40, 0x00, 0x00, 0x00, 0x03, 0x00, 0x00, 0x00,
  0x01, 0x00, 0x00, 0x00, 0x0c, 0x00, 0x00, 0x00, 0x63, 0x6f, 0x6e, 0x76,
  0x32, 0x64, 0x5f, 0x69, 0x6e, 0x70, 0x75, 0x74, 0x00, 0x00, 0x00, 0x00,
  0xfc, 0xff, 0xff, 0xff, 0x04, 0x00, 0x04, 0x00, 0x04, 0x00, 0x00, 0x00

    // Paste the data of the char array in `src/model.cc` here
};

unsigned int model_tflite_len = 12384;// Fill the int in `src/model.cc` here